#include "ecg_network_data.h"

ai_handle ai_ecg_network_data_weights_get(void)
{

  AI_ALIGNED(4)
  static const ai_u8 s_ecg_network_weights[ 15320 ] = {
    0x22, 0xaa, 0x95, 0xc0, 0x44, 0xbe, 0x94, 0xc0, 0x65, 0xd2,
    0x93, 0xc0, 0x87, 0xe6, 0x92, 0xc0, 0xa9, 0xfa, 0x91, 0xc0,
    0xca, 0x0e, 0x91, 0xc0, 0xec, 0x22, 0x90, 0xc0, 0x0e, 0x37,
    0x8f, 0xc0, 0x2f, 0x4b, 0x8e, 0xc0, 0x51, 0x5f, 0x8d, 0xc0,
    0x73, 0x73, 0x8c, 0xc0, 0x94, 0x87, 0x8b, 0xc0, 0xb6, 0x9b,
    0x8a, 0xc0, 0xd7, 0xaf, 0x89, 0xc0, 0xf9, 0xc3, 0x88, 0xc0,
    0x1b, 0xd8, 0x87, 0xc0, 0x20, 0xf0, 0x86, 0xc0, 0x5e, 0x00,
    0x86, 0xc0, 0x80, 0x14, 0x85, 0xc0, 0xa1, 0x28, 0x84, 0xc0,
    0xc3, 0x3c, 0x83, 0xc0, 0xe5, 0x50, 0x82, 0xc0, 0x06, 0x65,
    0x81, 0xc0, 0xa1, 0x8f, 0x80, 0xc0, 0x93, 0x1a, 0x7f, 0xc0,
    0xd7, 0x42, 0x7d, 0xc0, 0x1a, 0x6b, 0x7b, 0xc0, 0x5d, 0x93,
    0x79, 0xc0, 0xa0, 0xbb, 0x77, 0xc0, 0xe4, 0xe3, 0x75, 0xc0,
    0x27, 0x0c, 0x74, 0xc0, 0x6a, 0x34, 0x72, 0xc0, 0xae, 0x5c,
    0x70, 0xc0, 0xf1, 0x84, 0x6e, 0xc0, 0x34, 0xad, 0x6c, 0xc0,
    0x78, 0xd5, 0x6a, 0xc0, 0xce, 0xcb, 0x68, 0xc0, 0xfe, 0x25,
    0x67, 0xc0, 0x41, 0x4e, 0x65, 0xc0, 0x85, 0x76, 0x63, 0xc0,
    0xc8, 0x04, 0x61, 0xc0, 0x0b, 0xc7, 0x5f, 0xc0, 0x4f, 0xef,
    0x5d, 0xc0, 0x92, 0x17, 0x5c, 0xc0, 0xd5, 0x3f, 0x5a, 0xc0,
    0x19, 0x68, 0x58, 0xc0, 0x5c, 0x90, 0x56, 0xc0, 0x9f, 0xb8,
    0x54, 0xc0, 0xe2, 0xe0, 0x52, 0xc0, 0x26, 0x09, 0x51, 0xc0,
    0x69, 0x31, 0x4f, 0xc0, 0xac, 0x59, 0x4d, 0xc0, 0xf0, 0x81,
    0x4b, 0xc0, 0x33, 0xaa, 0x49, 0xc0, 0x76, 0xd2, 0x47, 0xc0,
    0xba, 0xfa, 0x45, 0xc0, 0xfd, 0x22, 0x44, 0xc0, 0x82, 0x14,
    0x42, 0xc0, 0x84, 0x73, 0x40, 0xc0, 0xc7, 0x9b, 0x3e, 0xc0,
    0x0e, 0xfb, 0x3c, 0xc0, 0x78, 0x76, 0x3a, 0xc0, 0x91, 0x14,
    0x39, 0xc0, 0xd4, 0x3c, 0x37, 0xc0, 0x32, 0xba, 0x35, 0xc0,
    0x5c, 0x6d, 0x33, 0xc0, 0xfe, 0x59, 0x32, 0xc0, 0xe1, 0xdd,
    0x2f, 0xc0, 0x25, 0x06, 0x2e, 0xc0, 0x68, 0x2e, 0x2c, 0xc0,
    0xab, 0x56, 0x2a, 0xc0, 0xee, 0x7e, 0x28, 0xc0, 0xa6, 0x6a,
    0x26, 0xc0, 0x75, 0xcf, 0x24, 0xc0, 0xb8, 0xf7, 0x22, 0xc0,
    0x6e, 0x01, 0x21, 0xc0, 0x3f, 0x48, 0x1f, 0xc0, 0xe8, 0xae,
    0x1c, 0xc0, 0xc6, 0x98, 0x1b, 0xc0, 0x09, 0xc1, 0x19, 0xc0,
    0x4c, 0xe9, 0x17, 0xc0, 0xd0, 0xa3, 0x16, 0xc0, 0xef, 0xa0,
    0x13, 0xc0, 0xc1, 0x3d, 0x12, 0xc0, 0x7c, 0x19, 0x10, 0xc0,
    0x10, 0x98, 0x0e, 0xc0, 0xe0, 0xda, 0x0c, 0xc0, 0xa2, 0xc9,
    0x0a, 0xc0, 0x2c, 0x17, 0x08, 0xc0, 0xe2, 0x03, 0x07, 0xc0,
    0xea, 0xce, 0x04, 0xc0, 0x6b, 0x26, 0x03, 0xc0, 0x32, 0x88,
    0x01, 0xc0, 0xab, 0x00, 0x00, 0xc0, 0x15, 0x13, 0xfc, 0xbf,
    0x02, 0x8a, 0xf8, 0xbf, 0x6f, 0x88, 0xf3, 0xbf, 0x9d, 0xb6,
    0xf1, 0xbf, 0x93, 0x5e, 0xec, 0xbf, 0xc2, 0x22, 0xea, 0xbf,
    0xa6, 0xb3, 0xe6, 0xbf, 0xd0, 0x87, 0xe2, 0xbf, 0xb5, 0xc1,
    0xde, 0xbf, 0x0f, 0xbf, 0xda, 0xbf, 0xea, 0xa7, 0xd6, 0xbf,
    0x70, 0x48, 0xd4, 0xbf, 0xbf, 0x64, 0xd0, 0xbf, 0x39, 0x85,
    0xcb, 0xbf, 0xc8, 0xd0, 0xc8, 0xbf, 0xc2, 0x16, 0xc5, 0xbf,
    0x7a, 0xdd, 0xc0, 0xbf, 0x26, 0x4f, 0xbd, 0xbf, 0x2d, 0x89,
    0xb9, 0xbf, 0x16, 0xd2, 0xb6, 0xbf, 0x58, 0xda, 0xb2, 0xbf,
    0x69, 0x8f, 0xaf, 0xbf, 0x1f, 0xec, 0xaa, 0xbf, 0x24, 0x21,
    0xa7, 0xbf, 0xd2, 0x80, 0xa3, 0xbf, 0x36, 0xcd, 0x9f, 0xbf,
    0x72, 0x81, 0x9b, 0xbf, 0x0a, 0x00, 0x98, 0xbf, 0x97, 0x1f,
    0x95, 0xbf, 0xfd, 0xc3, 0x91, 0xbf, 0x28, 0x66, 0x8d, 0xbf,
    0x01, 0x4a, 0x89, 0xbf, 0xfc, 0x07, 0x86, 0xbf, 0x56, 0xc1,
    0x82, 0xbf, 0x06, 0x94, 0x7c, 0xbf, 0xb3, 0xf1, 0x74, 0xbf,
    0xea, 0x77, 0x6d, 0xbf, 0xb5, 0xec, 0x66, 0xbf, 0x80, 0x2d,
    0x5f, 0xbf, 0xee, 0xbb, 0x57, 0xbf, 0x39, 0x2d, 0x51, 0xbf,
    0x2c, 0xaf, 0x49, 0xbf, 0x1b, 0xfa, 0x42, 0xbf, 0xdc, 0xf9,
    0x3a, 0xbf, 0x26, 0x3e, 0x33, 0xbf, 0xa8, 0x41, 0x2c, 0xbf,
    0xc2, 0x4d, 0x24, 0xbf, 0x88, 0x7d, 0x1c, 0xbf, 0x84, 0x5d,
    0x15, 0xbf, 0x7b, 0x5f, 0x0d, 0xbf, 0x90, 0x1f, 0x07, 0xbf,
    0x93, 0x37, 0x00, 0xbf, 0x41, 0x1b, 0xf2, 0xbe, 0x7b, 0x3a,
    0xe3, 0xbe, 0xb7, 0x64, 0xd3, 0xbe, 0x09, 0x81, 0xc4, 0xbe,
    0x61, 0x63, 0xb6, 0xbe, 0xfa, 0xab, 0xa9, 0xbe, 0xdd, 0x77,
    0x9b, 0xbe, 0x35, 0x2e, 0x8c, 0xbe, 0xc4, 0x58, 0x7a, 0xbe,
    0xcc, 0x29, 0x59, 0xbe, 0xe1, 0x63, 0x39, 0xbe, 0xc1, 0xe8,
    0x1b, 0xbe, 0x79, 0xbc, 0xff, 0xbd, 0xe5, 0x01, 0xc3, 0xbd,
    0x08, 0xf4, 0x88, 0xbd, 0x5b, 0x28, 0x22, 0xbd, 0x3d, 0xf8,
    0x43, 0xbc, 0xf5, 0xb4, 0x93, 0x3c, 0x0a, 0x7f, 0x3a, 0x3d,
    0xce, 0x0a, 0x96, 0x3d, 0x9a, 0x1a, 0xcc, 0x3d, 0x27, 0x6b,
    0x02, 0x3e, 0x74, 0xfa, 0x1e, 0x3e, 0x53, 0x07, 0x3d, 0x3e,
    0x24, 0x4e, 0x5c, 0x3e, 0xdc, 0x4a, 0x7c, 0x3e, 0xa2, 0xb2,
    0x8c, 0x3e, 0xac, 0x0f, 0x9b, 0x3e, 0x4c, 0x0d, 0xaa, 0x3e,
    0xf9, 0xa4, 0xb9, 0x3e, 0x12, 0x04, 0xc9, 0x3e, 0x55, 0x98,
    0xd8, 0x3e, 0xaa, 0x13, 0xe6, 0x3e, 0xfd, 0xb1, 0xf5, 0x3e,
    0x37, 0x38, 0x02, 0x3f, 0x0c, 0x78, 0x09, 0x3f, 0xaf, 0x16,
    0x10, 0x3f, 0xfe, 0xdb, 0x17, 0x3f, 0x15, 0x98, 0x1e, 0x3f,
    0xcb, 0x6b, 0x26, 0x3f, 0xb7, 0x80, 0x2d, 0x3f, 0xac, 0xce,
    0x34, 0x3f, 0xc6, 0xf4, 0x3c, 0x3f, 0xf6, 0x25, 0x43, 0x3f,
    0x1b, 0x8b, 0x4a, 0x3f, 0x7e, 0x27, 0x52, 0x3f, 0x8f, 0x90,
    0x5a, 0x3f, 0xd8, 0x4e, 0x61, 0x3f, 0xf6, 0xb6, 0x69, 0x3f,
    0xec, 0x75, 0x71, 0x3f, 0xa8, 0xda, 0x78, 0x3f, 0x23, 0x51,
    0x7e, 0x3f, 0x83, 0xfd, 0x82, 0x3f, 0x8f, 0xcf, 0x86, 0x3f,
    0x2a, 0xdd, 0x8a, 0x3f, 0xe6, 0xe0, 0x8d, 0x3f, 0xce, 0x91,
    0x91, 0x3f, 0xaa, 0xce, 0x95, 0x3f, 0x62, 0x67, 0x98, 0x3f,
    0xb2, 0x50, 0x9d, 0x3f, 0x32, 0x61, 0xa0, 0x3f, 0x8f, 0xa0,
    0xa4, 0x3f, 0xda, 0xb7, 0xa7, 0x3f, 0xe6, 0xca, 0xab, 0x3f,
    0x53, 0x7c, 0xaf, 0x3f, 0x33, 0x86, 0xb3, 0x3f, 0x0c, 0x23,
    0xb6, 0x3f, 0x81, 0x73, 0xbb, 0x3f, 0x9d, 0x9a, 0xbd, 0x3f,
    0x6c, 0xb6, 0xc1, 0x3f, 0xc6, 0x33, 0xc5, 0x3f, 0x5a, 0x9e,
    0xca, 0x3f, 0x33, 0xd3, 0xcd, 0x3f, 0x72, 0x2f, 0xd1, 0x3f,
    0x08, 0x63, 0xd4, 0x3f, 0x45, 0xd3, 0xd7, 0x3f, 0x86, 0x4d,
    0xda, 0x3f, 0x34, 0xb4, 0xdd, 0x3f, 0x15, 0x36, 0xe1, 0x3f,
    0x2a, 0x91, 0xe6, 0x3f, 0xa4, 0x40, 0xea, 0x3f, 0x1d, 0xf0,
    0xed, 0x3f, 0x96, 0x9f, 0xf1, 0x3f, 0xdf, 0xbc, 0xf5, 0x3f,
    0x92, 0x86, 0xf9, 0x3f, 0x02, 0x60, 0xfd, 0x3f, 0xbe, 0x2e,
    0x00, 0x40, 0x7b, 0x06, 0x02, 0x40, 0x45, 0xf1, 0x03, 0x40,
    0xf4, 0xb5, 0x05, 0x40, 0xb1, 0x8d, 0x07, 0x40, 0x6d, 0x65,
    0x09, 0x40, 0x2a, 0x3d, 0x0b, 0x40, 0xe7, 0x14, 0x0d, 0x40,
    0xf0, 0x6a, 0x0e, 0x40, 0x60, 0xc4, 0x10, 0x40, 0x1d, 0x9c,
    0x12, 0x40, 0xd3, 0x71, 0x14, 0x40, 0x96, 0x4b, 0x16, 0x40,
    0x53, 0x23, 0x18, 0x40, 0x10, 0xfb, 0x19, 0x40, 0xcc, 0xd2,
    0x1b, 0x40, 0x89, 0xaa, 0x1d, 0x40, 0x46, 0x82, 0x1f, 0x40,
    0x03, 0x5a, 0x21, 0x40, 0xbf, 0x31, 0x23, 0x40, 0x7c, 0x09,
    0x25, 0x40, 0x39, 0xe1, 0x26, 0x40, 0xf5, 0xb8, 0x28, 0x40,
    0xb2, 0x90, 0x2a, 0x40, 0xa6, 0xa4, 0xa6, 0xac, 0xa5, 0x98,
    0x9f, 0x9b, 0xaf, 0x9e, 0xae, 0x93, 0x8e, 0xa4, 0xad, 0x9c,
    0xaa, 0xad, 0xa7, 0xaa, 0xa8, 0xae, 0xa6, 0x9f, 0xab, 0x9f,
    0xa9, 0xa3, 0x9c, 0x9e, 0x90, 0x87, 0x84, 0x8a, 0x8d, 0x95,
    0x92, 0x83, 0x9a, 0xa0, 0xa2, 0x92, 0x9e, 0xaf, 0xaf, 0xa8,
    0xaa, 0xa4, 0xab, 0xa8, 0xb0, 0xa6, 0xb2, 0xb3, 0xb4, 0xbc,
    0xc8, 0xca, 0xb9, 0xb8, 0xb5, 0xb6, 0xa7, 0xbb, 0xb5, 0xa4,
    0x97, 0x9d, 0xa8, 0x98, 0xa6, 0x9d, 0x98, 0x7b, 0x84, 0x94,
    0xa1, 0x93, 0x7a, 0x8b, 0x8e, 0x99, 0x9f, 0xa6, 0xa2, 0x90,
    0x96, 0xa1, 0xb7, 0xc8, 0xb7, 0xa6, 0xa2, 0xa4, 0x9e, 0x92,
    0x8a, 0x7d, 0x7e, 0xaa, 0xbb, 0xb3, 0xae, 0x9d, 0x94, 0xc9,
    0xad, 0xab, 0x90, 0xb1, 0xae, 0xa6, 0xa2, 0x8e, 0x9e, 0xa9,
    0x8c, 0x9f, 0x8e, 0x9c, 0xa2, 0x99, 0x99, 0x94, 0x98, 0xa2,
    0xb2, 0x93, 0xa0, 0x90, 0xc8, 0xbc, 0xa4, 0x9b, 0x96, 0x7c,
    0x69, 0x8b, 0x8c, 0x84, 0x89, 0x89, 0xab, 0xaf, 0xb9, 0xa2,
    0xac, 0xbf, 0xbf, 0xc2, 0xc0, 0xa5, 0xb4, 0x96, 0x7f, 0x7c,
    0x7f, 0x7d, 0x88, 0x95, 0xa5, 0x9c, 0xa4, 0x9f, 0xb4, 0xa2,
    0xa7, 0x92, 0x9f, 0x9c, 0xae, 0xb7, 0xcb, 0xc9, 0xb1, 0xac,
    0xd4, 0xc5, 0xab, 0xa3, 0x8c, 0xb7, 0xa5, 0x94, 0x8a, 0xa5,
    0x98, 0xb5, 0x95, 0xf3, 0x77, 0x70, 0xcb, 0xea, 0xff, 0xcc,
    0xb0, 0xa1, 0xa4, 0x9f, 0x8b, 0x96, 0x9e, 0x8e, 0x8e, 0x99,
    0xa1, 0xa5, 0x9c, 0xa6, 0xa2, 0x9f, 0x9f, 0xa2, 0xa2, 0x9a,
    0x9f, 0xac, 0xae, 0xaa, 0xa4, 0x93, 0xa6, 0xad, 0xa4, 0xa2,
    0xad, 0xb1, 0xb6, 0xb7, 0xbd, 0xa8, 0xba, 0xad, 0x9c, 0xa4,
    0xab, 0xa1, 0x96, 0x9b, 0x9d, 0x9d, 0x9b, 0x92, 0x98, 0x95,
    0x94, 0x94, 0x9c, 0x8e, 0x8a, 0x84, 0x8d, 0x97, 0xa3, 0xa7,
    0x99, 0xa2, 0xa5, 0xab, 0xab, 0xa9, 0xaf, 0xa7, 0x9d, 0x95,
    0x99, 0xaf, 0xb8, 0xb1, 0xa4, 0xa4, 0xa4, 0x97, 0x87, 0xac,
    0xa4, 0x9c, 0x99, 0x9e, 0xa1, 0xa8, 0x98, 0xa2, 0xa7, 0xa4,
    0xa4, 0xae, 0xab, 0x9f, 0xa8, 0xa4, 0xa6, 0xa6, 0xa6, 0x93,
    0xa3, 0xa9, 0xad, 0x91, 0x8d, 0x9e, 0xa5, 0x93, 0x9c, 0xa8,
    0x9f, 0x99, 0xa8, 0xaa, 0xa8, 0xab, 0xb8, 0xaf, 0xa4, 0x94,
    0x9a, 0x92, 0x98, 0x9a, 0xa9, 0xab, 0xa4, 0xb2, 0xa1, 0xa0,
    0xa8, 0xa8, 0x9c, 0xb3, 0x98, 0xa2, 0x92, 0x9a, 0x9d, 0xb0,
    0xa8, 0xaa, 0xa0, 0x97, 0xa7, 0xa8, 0xa4, 0x8e, 0x8c, 0x90,
    0xaa, 0xa5, 0xb8, 0xbc, 0xbb, 0xa5, 0xa7, 0xa9, 0xa6, 0xa3,
    0x9b, 0x9c, 0xab, 0x9b, 0x99, 0x87, 0x95, 0x87, 0x8f, 0xa5,
    0xc0, 0xba, 0xca, 0xaf, 0xb0, 0x99, 0x85, 0x74, 0xb8, 0xb0,
    0x91, 0x6e, 0xb6, 0xce, 0xa8, 0xa7, 0xaf, 0xa7, 0x9f, 0x9d,
    0xb5, 0x97, 0x9f, 0xaf, 0xaf, 0xa2, 0xa2, 0xa1, 0x9a, 0xa4,
    0xa0, 0xa4, 0x96, 0x90, 0xac, 0x8e, 0x90, 0x97, 0x98, 0x8b,
    0xa4, 0x9e, 0xa3, 0xa9, 0xa4, 0xb0, 0xa5, 0xbf, 0xbc, 0xb5,
    0xb1, 0xb9, 0xac, 0xab, 0xa4, 0xa3, 0xaa, 0x98, 0x93, 0x9d,
    0x90, 0x98, 0x8b, 0x99, 0x9c, 0xbf, 0xc4, 0xac, 0xa0, 0xa0,
    0x9d, 0x9f, 0xa7, 0x91, 0x94, 0xa1, 0x8c, 0x8f, 0xa3, 0xa8,
    0xa9, 0xa8, 0xb4, 0xc5, 0xb8, 0xbb, 0xab, 0xa3, 0xa5, 0x9f,
    0x8f, 0x90, 0x91, 0x7a, 0x97, 0x9c, 0x95, 0x93, 0xb1, 0xa6,
    0xb6, 0xb3, 0xb4, 0xb8, 0xb9, 0xb1, 0x8d, 0x72, 0x81, 0x9b,
    0x94, 0x8d, 0x88, 0x93, 0xa2, 0xb4, 0xab, 0xb2, 0xb0, 0xb3,
    0xbc, 0x9e, 0xa9, 0xba, 0xa5, 0x9e, 0x9c, 0x8a, 0xa3, 0xa9,
    0x9d, 0xa9, 0x9c, 0xaa, 0xb0, 0xae, 0xa7, 0xb1, 0xa8, 0x9b,
    0xa7, 0xb4, 0xb9, 0xb8, 0x9c, 0x8b, 0x8f, 0x6e, 0x7b, 0x77,
    0x80, 0x90, 0xa5, 0xa3, 0xa3, 0xa2, 0xac, 0xc6, 0xac, 0xaa,
    0xb1, 0xa1, 0xa4, 0xb6, 0xa2, 0xa5, 0xa4, 0xa0, 0xa4, 0x97,
    0xa5, 0xa9, 0xa5, 0xa7, 0x9e, 0xa4, 0x9f, 0xa6, 0xa0, 0xa6,
    0xaf, 0xad, 0xa8, 0x95, 0xa7, 0xaf, 0xae, 0xa4, 0xad, 0xb5,
    0xa7, 0xa0, 0x9b, 0xa2, 0x9e, 0x9e, 0x9f, 0xa0, 0xa4, 0x9c,
    0x9d, 0x9e, 0xa1, 0x9d, 0x9b, 0xa0, 0xa6, 0xa4, 0x9e, 0xa5,
    0x9f, 0x9d, 0x9e, 0xa5, 0x9c, 0xa5, 0xa1, 0x9d, 0xa3, 0xa4,
    0x9b, 0x9b, 0x9d, 0x9b, 0xa2, 0x9f, 0xa4, 0xa2, 0x9f, 0xa0,
    0xa3, 0x9e, 0xa5, 0x9d, 0x9e, 0xa2, 0xa5, 0xa1, 0xa1, 0xa3,
    0xa1, 0xa5, 0xa6, 0xa5, 0xa4, 0x9f, 0x9c, 0x9b, 0x9c, 0xa1,
    0x9e, 0xa2, 0x9e, 0xa3, 0xa3, 0xa2, 0x9f, 0x9b, 0xa3, 0xa3,
    0xa2, 0x9c, 0x9e, 0xa4, 0xa2, 0xa0, 0x9d, 0xa5, 0xa4, 0xa0,
    0xa6, 0xa3, 0x9b, 0x9d, 0xa6, 0x9c, 0xa1, 0xa2, 0xa6, 0x9c,
    0xa4, 0xa4, 0xa4, 0xa5, 0x9f, 0xa4, 0xa0, 0xa5, 0xa3, 0x9c,
    0xa5, 0xa3, 0xa7, 0xa1, 0xa3, 0xa2, 0x9e, 0xa1, 0xa2, 0xa4,
    0x9b, 0x9e, 0x9b, 0x9e, 0xa0, 0xa4, 0x9b, 0xa6, 0x9c, 0x9c,
    0xa1, 0xa4, 0xa4, 0x9f, 0xa1, 0xa1, 0xa2, 0x9d, 0xa5, 0xa2,
    0xa2, 0x9d, 0x9d, 0x9e, 0xa3, 0xa5, 0xa0, 0xa3, 0xa1, 0x9d,
    0xa5, 0xa4, 0xa9, 0xa7, 0xa2, 0xa3, 0xa7, 0xa5, 0xa8, 0xa3,
    0xaa, 0xa2, 0xa9, 0xaa, 0xa7, 0x9d, 0x9e, 0xa1, 0xa4, 0xa3,
    0x9d, 0xa1, 0x9f, 0x9f, 0xa0, 0xa3, 0xa6, 0xa4, 0xa0, 0xa1,
    0xa3, 0xa3, 0xa4, 0x9b, 0xa0, 0xa4, 0xa2, 0xa0, 0x9d, 0xa5,
    0x9e, 0x9e, 0x9d, 0x9e, 0x9d, 0x9e, 0x9e, 0xa2, 0x9d, 0xa2,
    0xa1, 0xa4, 0xb0, 0xb3, 0xac, 0x6f, 0xb2, 0xe0, 0xc5, 0xa3,
    0x7f, 0x71, 0x8e, 0x9c, 0x87, 0x80, 0x89, 0x8d, 0x95, 0x9f,
    0x9d, 0xa1, 0xa4, 0xa2, 0x9d, 0xa5, 0xad, 0xb5, 0xc4, 0xb3,
    0xb3, 0xb2, 0xb7, 0xb9, 0xa5, 0x97, 0x98, 0x9c, 0x87, 0x81,
    0x7c, 0x83, 0x8a, 0x96, 0x90, 0x9c, 0x95, 0x96, 0xb4, 0xbb,
    0xa6, 0xa0, 0xaa, 0xae, 0xae, 0xa8, 0xad, 0xae, 0xaf, 0x9e,
    0xa1, 0xa6, 0xa6, 0xaa, 0xad, 0xc2, 0xae, 0xb4, 0xc4, 0xb5,
    0xc3, 0xb8, 0xb4, 0xa0, 0xa2, 0x9f, 0xa2, 0xa6, 0x9d, 0xaa,
    0xa4, 0x94, 0xa0, 0x96, 0x9e, 0xa5, 0xa4, 0x99, 0xa5, 0x9f,
    0x97, 0x98, 0xa7, 0xa1, 0xb0, 0xae, 0x9a, 0x9c, 0xad, 0xa1,
    0xa5, 0xac, 0xb0, 0xa5, 0xa0, 0xb3, 0x9f, 0xa4, 0xaa, 0xa4,
    0xa7, 0xa5, 0x98, 0x9b, 0xa4, 0xad, 0xa9, 0x9c, 0x82, 0x9c,
    0xa9, 0xaf, 0xa5, 0xa5, 0x9c, 0xa4, 0x9e, 0xa0, 0xa9, 0xc3,
    0xa2, 0xaf, 0xb4, 0xaa, 0x90, 0x92, 0x77, 0x83, 0x68, 0x5e,
    0xa0, 0x8e, 0x90, 0x94, 0x9b, 0xa4, 0xb8, 0xa0, 0xaa, 0xa8,
    0x93, 0x9a, 0xa2, 0xb5, 0xbf, 0xc6, 0xc3, 0xf3, 0xe5, 0xca,
    0xa0, 0xb0, 0x8e, 0x76, 0x7f, 0x6d, 0x5b, 0x39, 0x42, 0x5e,
    0x60, 0x77, 0x70, 0x7f, 0x7d, 0x9c, 0x8d, 0x93, 0x99, 0x9e,
    0x98, 0xb0, 0xbe, 0xc7, 0xbe, 0xc7, 0xce, 0xe7, 0xe7, 0xbc,
    0x99, 0x8b, 0x90, 0x8c, 0xbb, 0xc9, 0xe6, 0xd8, 0xc2, 0xa8,
    0xd3, 0xd6, 0xdb, 0xda, 0xc2, 0xbc, 0xaa, 0xa8, 0xb4, 0x9d,
    0x8f, 0x88, 0x80, 0x80, 0x7e, 0x73, 0x8f, 0x8a, 0x7f, 0x82,
    0x92, 0x84, 0x87, 0x81, 0x89, 0x94, 0x96, 0x97, 0x90, 0x9b,
    0x9c, 0x95, 0x95, 0x99, 0x99, 0x9d, 0xa8, 0x9a, 0xa1, 0xa8,
    0x99, 0x9e, 0xaf, 0xae, 0xa5, 0xaa, 0xa0, 0x99, 0x96, 0xa9,
    0xa2, 0xa1, 0x92, 0x9e, 0xac, 0xa7, 0xb0, 0xae, 0xa2, 0x9f,
    0x9a, 0xa3, 0xa4, 0xb4, 0x98, 0x8e, 0x9d, 0x9d, 0xa8, 0x9e,
    0x9d, 0xa7, 0xb8, 0x89, 0xac, 0xa8, 0xaa, 0xae, 0xa8, 0xae,
    0x9a, 0xa1, 0xa2, 0xa9, 0xa2, 0xa3, 0xa5, 0xa5, 0xa1, 0xa4,
    0xa6, 0xaa, 0xad, 0x9f, 0xa6, 0xa3, 0x9b, 0x94, 0x97, 0xae,
    0x9d, 0xac, 0xa6, 0xaa, 0xa5, 0x9a, 0x9c, 0xb1, 0xa0, 0xa1,
    0xad, 0x91, 0x97, 0x9e, 0x89, 0x9f, 0xa3, 0xa5, 0x99, 0xb5,
    0xa8, 0x9a, 0xa6, 0x98, 0x8c, 0xa2, 0xbe, 0xb2, 0xb2, 0xb1,
    0xa9, 0xa3, 0xa6, 0x97, 0x9f, 0xa1, 0xad, 0x90, 0xb9, 0x9b,
    0xa0, 0xb3, 0xb9, 0xa4, 0xa8, 0xba, 0xa1, 0xa0, 0xb1, 0xb0,
    0xa2, 0x8a, 0x90, 0x8e, 0x9f, 0x93, 0x9a, 0xa7, 0xab, 0xb9,
    0xbe, 0xbb, 0xac, 0x9e, 0xb1, 0x8b, 0x93, 0x94, 0x96, 0x92,
    0xae, 0xbe, 0xb8, 0xbe, 0xc0, 0x9c, 0x8f, 0xc2, 0xae, 0x69,
    0x82, 0xbf, 0xbe, 0xa5, 0xa9, 0xac, 0xaf, 0x9b, 0x94, 0x89,
    0x91, 0x8f, 0x93, 0x94, 0x96, 0x8d, 0x86, 0x91, 0x90, 0x78,
    0x7a, 0x7d, 0x7c, 0x82, 0x8c, 0x91, 0x8f, 0x8f, 0xa4, 0xab,
    0xb1, 0xaa, 0x9b, 0x98, 0x90, 0x96, 0x98, 0x94, 0x9b, 0xa3,
    0x96, 0x95, 0x93, 0x92, 0x99, 0x95, 0x94, 0x9d, 0x90, 0xa3,
    0x99, 0x96, 0x8c, 0x99, 0xa5, 0x96, 0xa1, 0xb3, 0xba, 0xba,
    0xaf, 0xb7, 0xaf, 0xab, 0xaf, 0xb9, 0xa5, 0xa6, 0xb2, 0xb7,
    0xa5, 0xa7, 0xac, 0xaf, 0xa8, 0xa7, 0x9e, 0x8d, 0x91, 0xa9,
    0xb6, 0xb7, 0xb4, 0xa8, 0xa3, 0xa1, 0xa4, 0xa8, 0x9e, 0xa9,
    0xb6, 0xb7, 0xba, 0xaa, 0x9b, 0xac, 0x9a, 0xa1, 0xa7, 0xa7,
    0x9d, 0xa8, 0x9b, 0x9e, 0xa3, 0xb8, 0xb8, 0xaf, 0xa9, 0xb7,
    0xbc, 0xc3, 0xbe, 0xb9, 0xac, 0xbc, 0xbd, 0xb0, 0xbb, 0xb3,
    0xa4, 0xb3, 0xb7, 0xc1, 0xc5, 0xa8, 0xab, 0xae, 0xb5, 0xa9,
    0xa3, 0xa2, 0xa9, 0x9d, 0xb6, 0xb1, 0xb1, 0xa9, 0xa8, 0xaf,
    0xa0, 0xa7, 0xa0, 0x9a, 0xb3, 0xb9, 0x9e, 0xab, 0xa3, 0xb6,
    0xa8, 0xa2, 0xa2, 0xac, 0xa2, 0x9c, 0xb0, 0xae, 0xa2, 0x9c,
    0xa4, 0xb7, 0xc1, 0xa1, 0xa0, 0x92, 0x9b, 0xa5, 0xaa, 0xa4,
    0x94, 0xa1, 0xc1, 0xb2, 0xaa, 0xaa, 0xb0, 0xb6, 0xc5, 0xb4,
    0xba, 0xbb, 0xbc, 0x5e, 0x70, 0xbe, 0x9d, 0x6f, 0x9b, 0xd2,
    0xe0, 0xc4, 0xc4, 0xa7, 0x9a, 0x96, 0x92, 0x8e, 0x95, 0x98,
    0x94, 0xa4, 0xa3, 0xa4, 0x9b, 0x92, 0x95, 0x8b, 0x8c, 0x86,
    0x8b, 0x87, 0x94, 0x9c, 0xa8, 0xb1, 0xb1, 0xba, 0xbb, 0xba,
    0xb6, 0xab, 0xab, 0xa9, 0x99, 0x9a, 0xa0, 0x9b, 0xa2, 0xa9,
    0x9e, 0xa8, 0xab, 0xaf, 0xad, 0xaa, 0x9d, 0x98, 0xa2, 0xa1,
    0x9a, 0x94, 0x90, 0x8b, 0x97, 0xa9, 0xaa, 0xac, 0xa5, 0xb2,
    0xb2, 0xb4, 0xad, 0xb4, 0xaf, 0xa5, 0xb4, 0xb1, 0xbe, 0xbd,
    0xaf, 0xa2, 0xc3, 0xb5, 0xb8, 0xa6, 0xaf, 0xa0, 0xa3, 0x94,
    0x96, 0x99, 0x97, 0x83, 0x9f, 0xa5, 0xa5, 0xac, 0xa8, 0xa1,
    0xa8, 0xae, 0xab, 0x97, 0xa7, 0xa5, 0xaa, 0xa0, 0xb1, 0xb5,
    0xaf, 0xb1, 0xaf, 0xa5, 0xa2, 0xa0, 0x99, 0x89, 0xac, 0xa7,
    0xae, 0x98, 0xa7, 0xb2, 0xa4, 0xa8, 0xaa, 0xa2, 0x99, 0x9a,
    0x9a, 0xa7, 0xa2, 0xa6, 0xaa, 0xb9, 0xae, 0x9f, 0x99, 0xa9,
    0x94, 0xa5, 0xae, 0xa9, 0xb2, 0xb4, 0xa0, 0x9e, 0xa7, 0xb8,
    0xbe, 0xb5, 0xad, 0x9c, 0xb6, 0x8d, 0xa3, 0x8f, 0xad, 0xae,
    0xab, 0xab, 0xb9, 0xc1, 0xb2, 0xaa, 0xab, 0xb6, 0x97, 0xa1,
    0x97, 0xaa, 0xaa, 0xa1, 0xa5, 0xa2, 0xa3, 0xa0, 0xaf, 0xa0,
    0x94, 0x8d, 0xa1, 0x98, 0x94, 0x91, 0xab, 0x93, 0x8e, 0x8e,
    0xb9, 0xcb, 0x63, 0x41, 0xd5, 0xdf, 0xaa, 0xa0, 0x97, 0x9f,
    0xaf, 0xb0, 0xb6, 0xb0, 0xb1, 0xb5, 0xb0, 0x9b, 0xa2, 0x8e,
    0x99, 0x9a, 0x92, 0x9e, 0x92, 0x94, 0x8c, 0x80, 0x7b, 0x7f,
    0x88, 0x85, 0x96, 0xa0, 0xb2, 0xb5, 0xaf, 0xbb, 0xac, 0xa7,
    0xad, 0xb2, 0xb1, 0xb3, 0xb4, 0xb2, 0xae, 0xb8, 0xad, 0xa5,
    0xa7, 0xa6, 0xa0, 0xa9, 0xa2, 0x9c, 0xa0, 0x94, 0x9a, 0xa1,
    0x9e, 0x90, 0x9b, 0xa0, 0x9f, 0x9b, 0xab, 0xa4, 0xa4, 0xaf,
    0xa6, 0xb0, 0xaf, 0xa1, 0x8f, 0xa0, 0x9f, 0x9f, 0x9c, 0xa2,
    0xa2, 0xa7, 0xb7, 0xac, 0xb1, 0xab, 0xb0, 0xad, 0xa4, 0xa4,
    0x9a, 0x9b, 0xaa, 0xa2, 0x9f, 0x9d, 0x9b, 0x9f, 0xae, 0xba,
    0x9f, 0xa6, 0xa9, 0xa9, 0xa4, 0x9a, 0xb4, 0xa1, 0x98, 0x91,
    0x86, 0x8d, 0xa0, 0xae, 0xab, 0x93, 0xa3, 0x95, 0x94, 0x9c,
    0xaf, 0xaa, 0xad, 0xa6, 0xaa, 0x9d, 0xaa, 0xa9, 0x9b, 0xa0,
    0xa6, 0x9f, 0xa2, 0xa8, 0xa9, 0xaf, 0xa9, 0xb9, 0xb2, 0xa4,
    0xa8, 0xa2, 0xa0, 0xa0, 0xae, 0xa5, 0x97, 0x95, 0xaf, 0xa5,
    0xa2, 0x9b, 0x83, 0x9d, 0x83, 0x90, 0x98, 0xb3, 0xb0, 0xa8,
    0xaa, 0xaa, 0xa1, 0xa7, 0xaf, 0x95, 0xa2, 0xa1, 0x9f, 0x9f,
    0x97, 0x9f, 0x9d, 0x9f, 0x96, 0x91, 0x9a, 0xa6, 0xab, 0xa9,
    0xa8, 0xa6, 0xaf, 0xb8, 0xb3, 0xc5, 0xc6, 0xb4, 0x6b, 0x98,
    0xa9, 0xc6, 0x9b, 0x88, 0x68, 0x86, 0x92, 0x73, 0x7f, 0x94,
    0x9f, 0x95, 0xa5, 0xa0, 0xa3, 0xa9, 0xb1, 0xaa, 0x98, 0x96,
    0x97, 0xa5, 0xa1, 0x98, 0x9f, 0xa3, 0x9f, 0x9d, 0x9d, 0xa5,
    0xab, 0xae, 0xbe, 0xbf, 0xb7, 0xbe, 0xb9, 0xb6, 0xb3, 0xb2,
    0xbb, 0xbc, 0xbe, 0xb2, 0xb2, 0xad, 0xaa, 0xa6, 0x9b, 0x9d,
    0xa3, 0xb1, 0xb2, 0xa7, 0xa0, 0x9f, 0x9e, 0x97, 0x8b, 0x8d,
    0x8a, 0x87, 0x86, 0x92, 0xa1, 0x93, 0x95, 0x8e, 0x93, 0x99,
    0xa0, 0x8b, 0x8e, 0x8b, 0x86, 0x9d, 0xa8, 0x97, 0x98, 0x9c,
    0x98, 0xa9, 0xa5, 0xa4, 0xaf, 0xb2, 0x9f, 0xa3, 0xbb, 0xac,
    0xb0, 0xaa, 0xa4, 0xa9, 0x9b, 0xa6, 0xaf, 0xae, 0xac, 0x9c,
    0xa2, 0xb0, 0xbc, 0x9d, 0xae, 0xaa, 0xb2, 0xa5, 0xa2, 0xa6,
    0xb4, 0x9e, 0xb5, 0xa1, 0xa5, 0xa1, 0xbf, 0xa5, 0xa0, 0x97,
    0x84, 0x90, 0xa4, 0x9a, 0x99, 0x91, 0x9d, 0xad, 0x94, 0x86,
    0x82, 0x8f, 0x97, 0x9e, 0xad, 0xaa, 0xbb, 0xaf, 0xa2, 0x9d,
    0x9d, 0xa4, 0xb2, 0xbb, 0xb1, 0xae, 0xa9, 0xa9, 0xaf, 0xb1,
    0xa3, 0xa3, 0xac, 0xa3, 0xa9, 0xa9, 0x8e, 0xaf, 0x96, 0xa8,
    0xaf, 0xa3, 0x9a, 0x86, 0x9a, 0xa4, 0xab, 0xa4, 0x9a, 0x95,
    0xa5, 0x9c, 0xa2, 0xbb, 0xab, 0xa1, 0x9b, 0xa2, 0xb0, 0xa3,
    0xb8, 0xb5, 0xaa, 0xa4, 0xa5, 0x8a, 0x83, 0x96, 0x8b, 0x7d,
    0x87, 0xa2, 0xb4, 0xb8, 0x96, 0xa3, 0xb6, 0xb3, 0xb6, 0xb5,
    0xad, 0xab, 0xb5, 0xbb, 0xb2, 0xb9, 0xb6, 0xc0, 0xa3, 0xa9,
    0xb1, 0x9b, 0x8f, 0x8a, 0x85, 0x84, 0x83, 0x89, 0x90, 0x86,
    0x80, 0x87, 0x93, 0x91, 0x90, 0x94, 0x97, 0x9a, 0x98, 0xa1,
    0xa2, 0xb1, 0xb4, 0xaa, 0xa3, 0xa0, 0xa0, 0xbb, 0xb5, 0xa2,
    0x99, 0x96, 0x8f, 0x9f, 0x9b, 0xae, 0xbf, 0xba, 0xaa, 0xb4,
    0xbc, 0xbc, 0xb4, 0xb2, 0xb2, 0xc2, 0xc2, 0xb2, 0xad, 0xae,
    0x90, 0xab, 0xaa, 0xac, 0x9e, 0xa4, 0xa5, 0xa3, 0xa3, 0xa0,
    0x9f, 0xa3, 0x98, 0x8c, 0x93, 0xac, 0xa5, 0x96, 0x91, 0x8a,
    0xa5, 0xb6, 0xaf, 0xa4, 0x9a, 0x98, 0x9b, 0x97, 0x83, 0xa8,
    0xa4, 0x9b, 0x8c, 0x91, 0x93, 0x99, 0xa5, 0xb3, 0xb2, 0xa5,
    0xab, 0x9d, 0xab, 0xad, 0x9b, 0xad, 0xbc, 0xc0, 0xb7, 0xb8,
    0xbb, 0xc4, 0xc2, 0xbe, 0xa5, 0x94, 0x86, 0x8e, 0xb5, 0xae,
    0x88, 0x8b, 0x96, 0x99, 0x8e, 0xb3, 0x9f, 0xa2, 0x9d, 0x9e,
    0xa7, 0xa4, 0xa9, 0xb3, 0xb9, 0xb8, 0xbc, 0x9f, 0xa8, 0x7e,
    0x8b, 0x91, 0xac, 0xac, 0x98, 0x9e, 0x8d, 0xa0, 0xa1, 0x98,
    0x9b, 0xa5, 0xa3, 0xa5, 0xb0, 0x98, 0xa0, 0xa3, 0x9b, 0xa0,
    0xa2, 0x9b, 0x97, 0x8e, 0x8a, 0x8a, 0x9d, 0x80, 0x7d, 0x88,
    0x89, 0x83, 0x8c, 0x91, 0x86, 0x5b, 0x6a, 0x93, 0xb0, 0xd5,
    0xda, 0xc6, 0xba, 0xc8, 0xbe, 0xb1, 0xae, 0xa4, 0xa3, 0x90,
    0x9c, 0xa5, 0xa1, 0x9f, 0xa3, 0x9e, 0x8e, 0x81, 0x8a, 0x92,
    0x95, 0xa0, 0xaa, 0xb7, 0xc9, 0xcc, 0xc9, 0xbd, 0xb6, 0xaf,
    0xab, 0xa2, 0x98, 0x97, 0x9f, 0x97, 0xa8, 0x9c, 0xa8, 0xa7,
    0xa3, 0xa5, 0xb0, 0xac, 0xb3, 0xb3, 0xa8, 0x99, 0x97, 0x9d,
    0x9d, 0xa2, 0xb0, 0xaa, 0xad, 0xa5, 0xa2, 0xa8, 0xab, 0xa9,
    0x98, 0xa1, 0xa3, 0x97, 0x8f, 0x96, 0x9e, 0x9b, 0x9d, 0xb3,
    0xad, 0xb4, 0xae, 0xb2, 0xc4, 0xb2, 0xac, 0xac, 0x8d, 0x94,
    0xaa, 0x94, 0x96, 0xa7, 0xa0, 0xa0, 0xb3, 0xb7, 0xb7, 0x9d,
    0x88, 0x8a, 0xa1, 0x93, 0x79, 0x80, 0x99, 0xaf, 0xb8, 0x9a,
    0x7b, 0x79, 0x84, 0x84, 0x6b, 0x5f, 0x83, 0x7f, 0x87, 0x8b,
    0x9a, 0xa2, 0xac, 0xad, 0xaa, 0xa7, 0xaa, 0xaa, 0xa0, 0xa8,
    0xac, 0xc2, 0xbf, 0xae, 0xab, 0xb6, 0xce, 0xb4, 0xb5, 0xb6,
    0xc0, 0xb4, 0xaf, 0xa9, 0xaa, 0xa3, 0xa8, 0xa9, 0x98, 0x97,
    0xa3, 0x92, 0x9e, 0x9b, 0x92, 0x97, 0xa2, 0xa4, 0xb5, 0xad,
    0x8e, 0x89, 0xa2, 0xa4, 0xa8, 0xa7, 0xa0, 0xa5, 0xab, 0xa3,
    0xaf, 0xaf, 0x9c, 0x9a, 0xa1, 0xa9, 0xa5, 0x91, 0x92, 0x94,
    0xa0, 0x94, 0x95, 0x9c, 0xa4, 0xa5, 0xb6, 0xc2, 0xd4, 0xab,
    0xa8, 0xcd, 0x8e, 0x9c, 0xae, 0x8e, 0x90, 0xa5, 0xb2, 0xa8,
    0x9d, 0x89, 0x9f, 0xb8, 0xa9, 0xb0, 0xad, 0xaa, 0xba, 0xba,
    0xb0, 0xb5, 0xae, 0xad, 0xa6, 0x9b, 0x93, 0x88, 0x7c, 0x8e,
    0x88, 0x74, 0x97, 0xa2, 0x9f, 0xa9, 0xbc, 0xbf, 0xba, 0xb1,
    0xb3, 0xbd, 0xaf, 0xb0, 0xab, 0xa5, 0xa8, 0x9e, 0xaa, 0xa8,
    0x9b, 0xa0, 0x9c, 0xa5, 0x98, 0x94, 0x90, 0x9d, 0x90, 0x9e,
    0xa9, 0xad, 0x9a, 0xaf, 0xa6, 0xa0, 0x91, 0xa1, 0xa7, 0xa4,
    0x9a, 0x99, 0x9f, 0xa2, 0x92, 0x9d, 0xa7, 0x9d, 0xa8, 0x96,
    0x94, 0x9c, 0x9a, 0x8e, 0x9c, 0x8d, 0x9e, 0x94, 0x9e, 0x8e,
    0x9d, 0x9c, 0xa0, 0x9f, 0x9f, 0xb1, 0xa2, 0xa3, 0xa9, 0xa1,
    0x7d, 0x7f, 0x9f, 0xad, 0xac, 0xa8, 0xa7, 0xc6, 0xa2, 0x8c,
    0x84, 0x93, 0x9e, 0xbe, 0xaf, 0xb5, 0xa6, 0xa7, 0xa0, 0xae,
    0xa0, 0x9b, 0xae, 0xa7, 0x95, 0xab, 0xa4, 0xa6, 0x8b, 0xb6,
    0xa0, 0x90, 0x80, 0xa9, 0xb4, 0xc1, 0xa4, 0xc2, 0xaa, 0x97,
    0xa0, 0x9b, 0xa2, 0xaa, 0xa5, 0xbe, 0xa5, 0x9b, 0xa2, 0x8d,
    0xa3, 0xa4, 0xa4, 0xc0, 0xad, 0xb0, 0x97, 0xab, 0x92, 0x9d,
    0xb3, 0xa2, 0x89, 0x9e, 0x91, 0xa5, 0x9c, 0xab, 0xa2, 0xa2,
    0x94, 0xa3, 0xb4, 0xaf, 0xa9, 0xab, 0xa1, 0xa2, 0xa4, 0xaf,
    0x9a, 0xa7, 0xa8, 0x99, 0x84, 0xc7, 0xcd, 0x96, 0x94, 0x62,
    0x17, 0x52, 0x7a, 0x7d, 0x95, 0x92, 0xa5, 0x9c, 0xb0, 0xb0,
    0xad, 0x92, 0x88, 0x8d, 0x87, 0x8d, 0x87, 0x7c, 0x85, 0x83,
    0x8e, 0x80, 0x99, 0x9c, 0xa6, 0xb3, 0xcb, 0xc3, 0xc4, 0xc5,
    0xb2, 0xac, 0xab, 0xa7, 0xa2, 0x99, 0xac, 0xa9, 0x9d, 0x9e,
    0xb3, 0xa3, 0xae, 0xa9, 0xac, 0xaf, 0xad, 0xa9, 0x9c, 0x9b,
    0x96, 0x96, 0x8f, 0x85, 0x9c, 0xa9, 0xa2, 0x9a, 0x97, 0x97,
    0x98, 0x97, 0x98, 0x9b, 0x97, 0xab, 0xa4, 0xa5, 0xab, 0xab,
    0xaf, 0xa5, 0xa5, 0xa2, 0xb6, 0xa5, 0xb3, 0xaa, 0xb0, 0xb0,
    0xbd, 0xad, 0xa1, 0xb3, 0x8d, 0xa2, 0xa3, 0xa0, 0xa7, 0xae,
    0xaf, 0xb3, 0x9c, 0xad, 0x9c, 0x9b, 0xae, 0x98, 0xa6, 0xa9,
    0xb1, 0xa5, 0x9a, 0xa1, 0xa5, 0x9b, 0xab, 0xaa, 0x9f, 0x91,
    0xab, 0xab, 0xb4, 0xa0, 0x9c, 0x9b, 0xb0, 0xa0, 0x9f, 0x82,
    0xa2, 0xae, 0x9f, 0xac, 0xb0, 0x95, 0x86, 0x83, 0x80, 0xa4,
    0xa3, 0xbe, 0x9b, 0xa6, 0xa8, 0xa3, 0xab, 0xad, 0xb2, 0xb3,
    0x98, 0x87, 0x99, 0x99, 0xa4, 0x9e, 0xa1, 0x96, 0x91, 0xb3,
    0xb6, 0xba, 0xbf, 0xc7, 0xa8, 0xa9, 0xb2, 0xb1, 0xb4, 0xac,
    0xa5, 0xa5, 0xa3, 0xb3, 0xaa, 0xa3, 0xa5, 0x95, 0x9a, 0x83,
    0x90, 0x9a, 0xa0, 0xa1, 0xa4, 0xa6, 0xab, 0xb1, 0xc2, 0xa8,
    0x9a, 0x95, 0xd4, 0x96, 0x87, 0x8d, 0x7e, 0x91, 0xb7, 0xad,
    0x89, 0x87, 0x98, 0xb0, 0x9e, 0x99, 0xa6, 0xa6, 0xb9, 0xb1,
    0xa7, 0xa8, 0xb1, 0xa0, 0x9a, 0xaa, 0x9f, 0xa3, 0xa5, 0xa7,
    0x9c, 0xa9, 0xab, 0xaf, 0xb4, 0xb0, 0xa4, 0xa4, 0x92, 0x97,
    0x9a, 0xa5, 0xaa, 0xb5, 0xb4, 0xab, 0xa5, 0x95, 0x9f, 0x92,
    0x97, 0x9d, 0xa2, 0xa2, 0xab, 0xab, 0xa9, 0xbb, 0xb2, 0xa6,
    0xae, 0xad, 0xa1, 0xa5, 0xac, 0xbb, 0x95, 0x8f, 0x9f, 0xa0,
    0xab, 0x98, 0xb0, 0xa6, 0xa0, 0xa3, 0xac, 0x9f, 0x91, 0xa4,
    0x97, 0x94, 0x9d, 0x8f, 0x8c, 0xa3, 0xa3, 0x9e, 0x96, 0x8d,
    0xa8, 0xa1, 0xb6, 0x99, 0xa1, 0xa0, 0x94, 0x93, 0xb4, 0xb2,
    0xb3, 0xbc, 0xb8, 0xbe, 0xba, 0xb5, 0xa3, 0xa3, 0xa7, 0x93,
    0x9f, 0xa3, 0x97, 0x9b, 0x85, 0x83, 0x9e, 0xb4, 0x9a, 0x9c,
    0x90, 0x8f, 0xa9, 0xaf, 0x9c, 0x9b, 0x9f, 0x94, 0xa1, 0xb4,
    0xa7, 0x7b, 0x8c, 0x9c, 0x7f, 0x90, 0xb6, 0xb2, 0xa6, 0xa2,
    0xbc, 0xa5, 0xaa, 0xaa, 0xa4, 0x97, 0x7a, 0x87, 0x77, 0x81,
    0x86, 0x80, 0x96, 0x9d, 0xba, 0xb4, 0x9e, 0xa1, 0xa2, 0xb8,
    0xbf, 0xbf, 0xb1, 0xae, 0xa3, 0xa0, 0x8e, 0x92, 0x83, 0x95,
    0xa2, 0xb1, 0xba, 0xa3, 0xa1, 0xa2, 0x91, 0x94, 0x98, 0x8d,
    0x9e, 0x9b, 0xa1, 0x99, 0x99, 0x90, 0x8c, 0x92, 0x92, 0x70,
    0x9c, 0xc7, 0xc9, 0x91, 0x98, 0xac, 0x9a, 0x85, 0x9f, 0xa9,
    0xbd, 0xb9, 0xb3, 0xac, 0xa6, 0xa3, 0x9d, 0x9b, 0x8b, 0x8f,
    0x93, 0x89, 0x8a, 0x8a, 0x90, 0x95, 0x99, 0x96, 0xa1, 0xab,
    0xa9, 0xae, 0xa4, 0xb2, 0xa9, 0x97, 0x9b, 0x91, 0x94, 0x9d,
    0x9a, 0xac, 0xb4, 0xaa, 0xaf, 0xb4, 0xbb, 0xb8, 0xb1, 0xb2,
    0xb8, 0xb2, 0xa6, 0xa9, 0xba, 0xc0, 0xa8, 0xa8, 0x9d, 0xa0,
    0xa0, 0xad, 0xa2, 0xa4, 0xa9, 0xa3, 0x9d, 0x99, 0x9d, 0xa7,
    0xa0, 0xaf, 0xa7, 0x9e, 0x8a, 0x9b, 0x9e, 0x9f, 0x9b, 0x85,
    0x90, 0x9d, 0x9c, 0x8e, 0xa6, 0xa8, 0xba, 0xb7, 0xb9, 0xbf,
    0xa6, 0x80, 0x7b, 0x8a, 0x95, 0x8e, 0xa0, 0xaa, 0xa7, 0xb9,
    0xac, 0xb3, 0xb8, 0xbf, 0xb1, 0x93, 0xa3, 0xa6, 0xa0, 0xb7,
    0xb9, 0xbb, 0xb3, 0xa6, 0x8f, 0x93, 0x90, 0x81, 0x7e, 0x7b,
    0x6e, 0x7b, 0x88, 0x92, 0x79, 0x9a, 0x84, 0x87, 0x85, 0x90,
    0x84, 0x8f, 0xa6, 0xab, 0xa9, 0xbb, 0xb7, 0xb4, 0xb0, 0xaa,
    0xae, 0xae, 0xa8, 0xa8, 0xaf, 0xa4, 0xb7, 0xb4, 0xb9, 0xbb,
    0xb6, 0xa6, 0xa4, 0xab, 0xa5, 0xac, 0xad, 0x96, 0xa0, 0x9c,
    0x99, 0x9e, 0x95, 0x99, 0x9c, 0xad, 0xb4, 0xbb, 0xb9, 0xb9,
    0xb6, 0xb0, 0xb2, 0xb3, 0xb2, 0x98, 0xa2, 0x9b, 0xac, 0xb6,
    0x9c, 0xa9, 0xa3, 0xa3, 0xa4, 0x9c, 0xc2, 0xc8, 0xb4, 0x9c,
    0x81, 0x85, 0x93, 0x86, 0x94, 0xb2, 0xac, 0xbc, 0xab, 0xa1,
    0xa2, 0xa6, 0xa0, 0x9e, 0x91, 0x8e, 0x8e, 0x87, 0x81, 0x89,
    0x8c, 0x97, 0xa1, 0xa4, 0xb7, 0xb8, 0xaa, 0xaa, 0xaa, 0x99,
    0xa3, 0xa7, 0xa6, 0xac, 0xb3, 0xb1, 0xb6, 0xab, 0xae, 0xbd,
    0xa9, 0xa6, 0xa3, 0x95, 0x97, 0x8f, 0x90, 0x93, 0x94, 0x91,
    0x9b, 0xb2, 0xb9, 0xab, 0xa1, 0xb1, 0xab, 0xab, 0xa9, 0xa7,
    0xa4, 0xaa, 0xb3, 0xa1, 0xb0, 0xb0, 0xbb, 0xc1, 0xb7, 0xb0,
    0xad, 0x9b, 0x95, 0x96, 0xa2, 0x99, 0xa5, 0x95, 0x9d, 0x96,
    0x96, 0x9c, 0x9e, 0x91, 0x94, 0x8c, 0xa8, 0x9e, 0xab, 0xa5,
    0xab, 0x91, 0x92, 0x95, 0x99, 0xa6, 0xa9, 0xa9, 0x9c, 0xa6,
    0x93, 0xa3, 0x75, 0x8c, 0xa7, 0xac, 0x94, 0xa7, 0xae, 0xac,
    0x94, 0xad, 0xa5, 0x9d, 0x95, 0x9f, 0xa3, 0x97, 0x8d, 0x96,
    0xb7, 0xaa, 0xa0, 0xa2, 0xb6, 0x92, 0x98, 0xaa, 0xa5, 0xa4,
    0xab, 0xae, 0xb8, 0x9f, 0xb4, 0xae, 0x97, 0x99, 0x91, 0x92,
    0xa5, 0x96, 0x85, 0xb0, 0xad, 0xc0, 0xa1, 0xa3, 0xa6, 0xa6,
    0xa5, 0xa7, 0x9f, 0x84, 0xa7, 0xb4, 0xaf, 0x97, 0xa8, 0xa0,
    0x9d, 0xa3, 0x9c, 0x9e, 0xa2, 0xb0, 0xa3, 0x9b, 0xa5, 0xa8,
    0xba, 0x9d, 0x9d, 0xa2, 0x9a, 0xa1, 0xa9, 0xab, 0x90, 0x8a,
    0x98, 0x8a, 0x84, 0xb5, 0x7c, 0x85, 0xc9, 0xc0, 0x95, 0x85,
    0x9a, 0xaa, 0x96, 0x81, 0x82, 0x8c, 0x87, 0x88, 0x8f, 0x9e,
    0xab, 0xa6, 0xa6, 0xac, 0xa3, 0xa8, 0xa3, 0xaa, 0xab, 0xad,
    0xa4, 0xa3, 0xab, 0x9c, 0x92, 0x9a, 0x93, 0x9a, 0x98, 0x9a,
    0x9d, 0xae, 0xb6, 0xb2, 0xb8, 0xbb, 0xbc, 0xa8, 0xa7, 0xa7,
    0xa0, 0xaa, 0xb6, 0xb2, 0xba, 0xb4, 0xa8, 0xa8, 0xa8, 0x97,
    0x8a, 0x87, 0xa3, 0xa4, 0xb6, 0xb6, 0xb0, 0xbb, 0xab, 0x9c,
    0xa1, 0xa7, 0x9d, 0xac, 0xaf, 0xaa, 0xa2, 0xa2, 0xa2, 0xa6,
    0xa9, 0xb1, 0xa4, 0xae, 0xae, 0xae, 0xa0, 0x7a, 0x74, 0x7b,
    0x74, 0x78, 0x8a, 0x8d, 0xa3, 0xa4, 0xad, 0xad, 0xb2, 0xb8,
    0xb1, 0xb4, 0xb3, 0xb0, 0xbc, 0xae, 0x9d, 0xac, 0xab, 0x90,
    0x98, 0x9a, 0x9d, 0xa8, 0xa5, 0x96, 0xa4, 0xb7, 0xb0, 0x99,
    0xa7, 0x9d, 0xac, 0xac, 0x95, 0xaa, 0xba, 0xa1, 0xa4, 0x91,
    0x99, 0xaf, 0xb6, 0x8c, 0x7b, 0x7a, 0x90, 0x95, 0x9f, 0xba,
    0xa7, 0xa3, 0x88, 0x99, 0xa7, 0xa6, 0xa0, 0xaa, 0xa6, 0xb7,
    0xce, 0xb9, 0xaa, 0x94, 0xa0, 0xaa, 0x92, 0x75, 0xad, 0x7e,
    0x55, 0x51, 0x7f, 0xa0, 0x9c, 0x9f, 0xa2, 0xb4, 0xbf, 0x92,
    0x91, 0x9e, 0x96, 0xa2, 0xb9, 0xc1, 0xb0, 0xb4, 0x9e, 0xd8,
    0xca, 0xcb, 0xa6, 0x85, 0x99, 0x7d, 0x76, 0x6d, 0x74, 0x72,
    0x9f, 0xae, 0xaf, 0xd6, 0xae, 0xc1, 0xdc, 0xc8, 0xc7, 0xb3,
    0xc0, 0x9f, 0x91, 0x91, 0x9c, 0x85, 0x97, 0x95, 0x92, 0x7e,
    0x92, 0x74, 0x7f, 0x5b, 0x7e, 0x68, 0x3c, 0x53, 0x78, 0x65,
    0x74, 0x8f, 0xa4, 0xa7, 0xc4, 0xc1, 0xbd, 0xb4, 0xaa, 0x94,
    0x9c, 0xa4, 0xad, 0x98, 0x9e, 0x9d, 0xaf, 0xae, 0xae, 0xa9,
    0xab, 0xa9, 0xa6, 0xad, 0xa2, 0x9b, 0xb3, 0xa4, 0xb1, 0xa5,
    0x98, 0x8c, 0x9d, 0xa4, 0xa8, 0xaa, 0xa9, 0xa8, 0xa7, 0x9b,
    0xab, 0xb1, 0xaf, 0xaa, 0xa5, 0xa4, 0xa0, 0x9d, 0x9c, 0xa1,
    0xa8, 0x9f, 0xa1, 0x9e, 0xb2, 0xaa, 0xad, 0xa4, 0xa5, 0x88,
    0xa7, 0x9f, 0x9c, 0xa5, 0x9b, 0xa5, 0x9c, 0x9e, 0x92, 0x94,
    0xa6, 0xa5, 0xae, 0x9a, 0xa1, 0x9e, 0xad, 0xa0, 0xab, 0xb1,
    0xac, 0xb0, 0xaa, 0xa5, 0xa7, 0xb3, 0xa1, 0x7f, 0xae, 0xb5,
    0xb4, 0xac, 0xaa, 0xb3, 0xb8, 0x9b, 0xab, 0x9b, 0x9c, 0xa4,
    0xac, 0xa9, 0xc2, 0x9d, 0xae, 0xa0, 0xa6, 0xa2, 0xa5, 0xa7,
    0xa6, 0xa1, 0xa2, 0xa3, 0x76, 0xae, 0x92, 0x9c, 0x89, 0xa9,
    0xbb, 0xaf, 0x84, 0xb5, 0x70, 0x67, 0x83, 0x9b, 0x80, 0x7d,
    0x97, 0xac, 0x9a, 0x92, 0x91, 0x91, 0xac, 0x9f, 0xac, 0xa5,
    0xad, 0xa7, 0xa9, 0xa7, 0x9b, 0x9a, 0xa2, 0xb2, 0xb3, 0xba,
    0xb1, 0x9b, 0x9a, 0x9f, 0xb4, 0xb4, 0xbe, 0xca, 0x93, 0xa1,
    0x80, 0xa9, 0xb4, 0xa7, 0xaf, 0x93, 0x8f, 0xa9, 0xa0, 0xab,
    0x96, 0xaa, 0xb5, 0xae, 0xae, 0xaf, 0x9c, 0xaa, 0x9c, 0xa2,
    0x99, 0x99, 0x8f, 0x99, 0x94, 0x9c, 0x98, 0x94, 0x90, 0x9a,
    0x8b, 0x8c, 0x98, 0x9e, 0x9f, 0x9e, 0xaa, 0xb6, 0xb0, 0xc6,
    0xbf, 0xbe, 0xc5, 0xbe, 0xab, 0xb6, 0xbd, 0xbc, 0xb2, 0xb3,
    0xa3, 0xa1, 0xae, 0xaf, 0xae, 0xa3, 0xaa, 0xab, 0xaf, 0xa2,
    0x9f, 0x8f, 0xa2, 0x9f, 0x9a, 0x8e, 0x8b, 0x99, 0x99, 0xae,
    0x9e, 0xa0, 0x96, 0x9a, 0x97, 0xa6, 0xa4, 0xa8, 0xa0, 0xb0,
    0xb1, 0xb0, 0xa5, 0x93, 0x9a, 0x97, 0xa1, 0xaf, 0xaa, 0x92,
    0x9e, 0xa4, 0x8f, 0x9c, 0xa2, 0xa4, 0x8e, 0x8d, 0x99, 0xa5,
    0xaa, 0x8c, 0xa7, 0x9d, 0x9b, 0x7c, 0x95, 0xad, 0xaf, 0xa2,
    0x9c, 0xaf, 0xb2, 0xb6, 0xa6, 0xb1, 0xa8, 0x99, 0xa6, 0x94,
    0x98, 0x9c, 0x94, 0x9c, 0xa0, 0xa8, 0xa7, 0xa4, 0xad, 0xa9,
    0xa2, 0xa1, 0xa2, 0xa9, 0x9a, 0x9c, 0xa9, 0xa9, 0xb0, 0xac,
    0x9e, 0xa3, 0x96, 0x9b, 0x9e, 0x83, 0x7b, 0x95, 0x97, 0xb3,
    0xa9, 0xab, 0xb1, 0x9d, 0xab, 0xb1, 0xb8, 0xa7, 0x9b, 0x9f,
    0x97, 0x8e, 0x9b, 0x9e, 0x9f, 0x9f, 0x9f, 0xa1, 0x9d, 0xa0,
    0xb0, 0xb1, 0x9e, 0x95, 0x9c, 0x92, 0x9c, 0xa4, 0xac, 0xac,
    0xaa, 0xac, 0xb2, 0xa8, 0xc1, 0x86, 0xb4, 0xc5, 0xd8, 0xc8,
    0xcf, 0xd4, 0xab, 0x95, 0x94, 0x99, 0x99, 0x8b, 0x93, 0x8f,
    0x94, 0x9d, 0xa8, 0xa3, 0xa5, 0xad, 0xa4, 0xac, 0xa6, 0xa4,
    0x98, 0xa1, 0x91, 0x97, 0x90, 0x99, 0xa0, 0x98, 0x95, 0xaa,
    0xab, 0xa0, 0x9a, 0xa9, 0xa3, 0xaf, 0xa6, 0xa2, 0xad, 0xaf,
    0xb2, 0xa2, 0xa3, 0xc0, 0xaf, 0xb2, 0xa5, 0x9b, 0xaa, 0xad,
    0xa9, 0xa3, 0xa8, 0x9b, 0xa9, 0xaf, 0xa7, 0xaa, 0xa4, 0xb3,
    0xae, 0xa5, 0xa8, 0xb9, 0xa2, 0xa4, 0xb6, 0x9a, 0x9f, 0xa4,
    0xa1, 0x8d, 0x91, 0xa3, 0x99, 0xa3, 0x95, 0xa2, 0xa9, 0x8f,
    0x9a, 0xa0, 0xaa, 0xb2, 0x9f, 0xb1, 0xb0, 0xa3, 0x98, 0xa0,
    0xb3, 0x95, 0x8a, 0x9b, 0xa0, 0xa3, 0xac, 0x99, 0xaa, 0xab,
    0xa2, 0xb4, 0xa6, 0xb9, 0xb3, 0xaa, 0xab, 0xb9, 0xc2, 0xa0,
    0xab, 0xa0, 0xae, 0x90, 0x9c, 0xaa, 0x99, 0xaa, 0x9d, 0xa2,
    0x92, 0x9b, 0x84, 0x89, 0xa5, 0xbc, 0xa8, 0xa8, 0x95, 0xb0,
    0xa7, 0xad, 0x96, 0x9b, 0xb0, 0x9a, 0xa0, 0xac, 0xa7, 0xab,
    0x99, 0x8c, 0x80, 0x78, 0x87, 0x93, 0xa4, 0xa8, 0x96, 0xb8,
    0xb0, 0xa6, 0xa4, 0xaf, 0xbf, 0xaf, 0xb9, 0xa5, 0xa3, 0x9b,
    0xa1, 0xa6, 0xa1, 0x93, 0x8b, 0x8b, 0x99, 0x94, 0xa1, 0x9b,
    0xab, 0xa7, 0xa2, 0xb2, 0xb6, 0xa9, 0x9b, 0x9a, 0xa9, 0xad,
    0xb7, 0xbb, 0xac, 0xaa, 0xb5, 0xad, 0xa0, 0x9f, 0xa1, 0xab,
    0xa1, 0x9f, 0x93, 0x8c, 0x95, 0xa1, 0xa0, 0xa9, 0xae, 0xa9,
    0xb7, 0xa2, 0xac, 0xa8, 0xad, 0xac, 0xa0, 0xad, 0xaf, 0x96,
    0xa0, 0xa0, 0x91, 0xa1, 0x9e, 0xaf, 0xb3, 0xb3, 0xaa, 0xb3,
    0xab, 0xa7, 0xaf, 0xa4, 0x99, 0x8b, 0x95, 0x8f, 0xa9, 0x92,
    0x80, 0x89, 0x94, 0xb5, 0xc7, 0xb2, 0xad, 0x93, 0x8b, 0x87,
    0x92, 0x8a, 0xa0, 0xb2, 0xb3, 0x9a, 0x9d, 0xaa, 0xb2, 0x9a,
    0x90, 0xa2, 0xb8, 0x74, 0x81, 0x80, 0x79, 0x79, 0x87, 0x6d,
    0x67, 0x6b, 0x76, 0x86, 0xa7, 0xb3, 0xb0, 0xb8, 0xb8, 0xb0,
    0xaf, 0xb8, 0xc8, 0xc4, 0xbf, 0xb7, 0xb2, 0xb3, 0xc4, 0xb5,
    0x8c, 0x7f, 0xb9, 0xb9, 0x85, 0x9e, 0x8f, 0xab, 0xa2, 0x98,
    0x93, 0xa7, 0xa4, 0xc6, 0x8c, 0x92, 0xc0, 0xad, 0xa5, 0x9a,
    0x9e, 0xb0, 0xb7, 0x75, 0x5a, 0x8c, 0x99, 0xa9, 0xa8, 0x88,
    0x93, 0x9b, 0xb1, 0xbb, 0xce, 0xb9, 0x9b, 0xb2, 0xb1, 0xb3,
    0xac, 0xa9, 0xa7, 0x89, 0x83, 0xa9, 0xa0, 0xa1, 0x9a, 0xa1,
    0xa4, 0xa7, 0x9a, 0xac, 0xac, 0xb2, 0xae, 0x9c, 0x9b, 0xb2,
    0xb8, 0xbb, 0xab, 0x99, 0x8b, 0x80, 0x94, 0xa3, 0xb3, 0xa2,
    0xa8, 0xaa, 0xa9, 0x93, 0xa3, 0xa2, 0x90, 0x8e, 0x94, 0x8b,
    0x85, 0xa8, 0xb7, 0xbc, 0xb8, 0xb8, 0xb3, 0x9a, 0xa3, 0x9a,
    0x9d, 0x99, 0x97, 0xa0, 0x75, 0x6c, 0x7a, 0x77, 0x8b, 0x7d,
    0x8c, 0x92, 0x8b, 0x9b, 0xb7, 0xb0, 0xa6, 0xb6, 0xaf, 0xb3,
    0xb2, 0xb7, 0xad, 0xa0, 0x9b, 0x8e, 0x87, 0x81, 0x75, 0x71,
    0x76, 0x78, 0x74, 0x8e, 0x93, 0x9d, 0x9c, 0xa5, 0xa5, 0x95,
    0x9d, 0xa6, 0xb0, 0xad, 0xab, 0xad, 0xa1, 0x9d, 0x9c, 0xb1,
    0xab, 0xab, 0xae, 0xb1, 0xa5, 0xa2, 0xa3, 0x9d, 0x9b, 0x98,
    0x9d, 0xad, 0xa3, 0x9b, 0x95, 0x99, 0x94, 0x9c, 0xad, 0xbb,
    0xb6, 0xbc, 0xbc, 0xbd, 0xc2, 0xc0, 0xb5, 0xb3, 0xb7, 0xaa,
    0xb0, 0xb9, 0xae, 0xa8, 0xb4, 0xaa, 0xa0, 0xae, 0xad, 0xb1,
    0xbf, 0xb7, 0xb5, 0xa4, 0x9e, 0x9f, 0xa0, 0x9b, 0x96, 0x9e,
    0xa3, 0xa9, 0x9b, 0xa9, 0xa5, 0xad, 0xa5, 0xaf, 0xa4, 0xa7,
    0xc1, 0xb8, 0xa3, 0xa5, 0xad, 0x95, 0x90, 0x96, 0x9c, 0x98,
    0x7c, 0x91, 0x85, 0xa2, 0xa1, 0x7a, 0x8c, 0x92, 0x92, 0xae,
    0xb9, 0xc9, 0xc2, 0xb2, 0xbf, 0xb4, 0xaa, 0xaf, 0xc0, 0xa5,
    0xb0, 0xa4, 0xa0, 0x6f, 0x48, 0x7c, 0x86, 0x81, 0x98, 0x9a,
    0x99, 0x9d, 0xa7, 0xb3, 0xa9, 0xb9, 0xb4, 0xa5, 0xac, 0xaf,
    0xa5, 0xb5, 0xa0, 0xb7, 0xa8, 0x9e, 0x8f, 0x8e, 0x90, 0xa5,
    0x8a, 0x93, 0x94, 0x99, 0x99, 0x90, 0x90, 0x93, 0x90, 0xa4,
    0xa7, 0xa0, 0xb0, 0xb0, 0xaf, 0xb3, 0xb2, 0xb9, 0x9a, 0xbf,
    0xba, 0x85, 0x85, 0x86, 0x7c, 0x8d, 0x92, 0x9e, 0x8a, 0x8e,
    0x8f, 0x96, 0xab, 0x9d, 0x9f, 0x9f, 0x9d, 0x9a, 0x9f, 0xa1,
    0xa1, 0xaf, 0x95, 0x95, 0x96, 0x82, 0x6a, 0x79, 0x7c, 0x7d,
    0x8a, 0x92, 0xa6, 0xb4, 0xc6, 0xc2, 0xca, 0xc7, 0xd1, 0xca,
    0xbb, 0xb1, 0xb5, 0xa8, 0x9c, 0x98, 0xa0, 0x98, 0xa0, 0xa5,
    0xb6, 0xaf, 0xae, 0x9a, 0xa3, 0xa9, 0xa8, 0xa6, 0xa6, 0xa2,
    0x99, 0xaa, 0xae, 0xa6, 0xa5, 0xa2, 0xad, 0xac, 0xb1, 0xa7,
    0x9d, 0xaa, 0x9f, 0xae, 0xa0, 0xa3, 0xa2, 0xb8, 0xb8, 0xb3,
    0xb6, 0xb3, 0xb4, 0xa0, 0x9b, 0x91, 0x86, 0x7f, 0x81, 0x9c,
    0xb9, 0xaa, 0x9f, 0x9c, 0xa7, 0x9e, 0xaf, 0xbe, 0xb3, 0xa2,
    0xac, 0xab, 0xa7, 0x9e, 0x9d, 0x84, 0x84, 0x95, 0xa4, 0x9f,
    0x97, 0x9c, 0x9a, 0x8d, 0xa1, 0xaa, 0xa9, 0xbf, 0xad, 0xa3,
    0xb4, 0xab, 0xa4, 0xa9, 0xa2, 0x9c, 0xa4, 0x8e, 0xa7, 0xa7,
    0x97, 0xa8, 0xa2, 0xa6, 0x93, 0xa2, 0xab, 0xa2, 0x9f, 0xbb,
    0xb5, 0xb1, 0xc1, 0xaa, 0xb6, 0xad, 0x9e, 0xbd, 0xa6, 0xb9,
    0xc0, 0xbe, 0xa9, 0xae, 0xb6, 0xae, 0xa8, 0xa3, 0xa6, 0xa1,
    0xb7, 0xa0, 0xaf, 0x9e, 0xad, 0xa7, 0xa0, 0xa2, 0xa3, 0xa3,
    0x97, 0xa6, 0xab, 0xa7, 0x91, 0xa2, 0xb4, 0xa1, 0x96, 0xa5,
    0x9b, 0x89, 0x9f, 0x9c, 0x9e, 0x9e, 0xa4, 0xa1, 0x9f, 0x9f,
    0xa7, 0xa5, 0xa1, 0x9f, 0xa4, 0x9e, 0xa5, 0xa2, 0xa4, 0x9c,
    0xa2, 0xa2, 0xa6, 0xa5, 0xa3, 0xa4, 0xa1, 0xa6, 0xa1, 0x9d,
    0xa5, 0x9d, 0xa5, 0xa0, 0xa3, 0x9d, 0xa0, 0x9f, 0xa3, 0xa7,
    0xa2, 0xa4, 0x9d, 0x9f, 0xa8, 0x9f, 0xa1, 0x9e, 0x9f, 0xa1,
    0x9f, 0xa1, 0xa6, 0x9f, 0xa4, 0xa7, 0xa0, 0xa6, 0xa3, 0x9d,
    0xa1, 0xa4, 0xa3, 0xa8, 0xa1, 0xa5, 0xa0, 0xa4, 0xa2, 0xa4,
    0x9e, 0x9e, 0xa2, 0xa7, 0xa1, 0xa4, 0x9d, 0x9f, 0xa8, 0xa2,
    0xa2, 0xa1, 0xa7, 0x9f, 0xa5, 0xa2, 0xa1, 0x9f, 0xa2, 0x9e,
    0x9e, 0xa7, 0x9e, 0xa0, 0xa1, 0xa1, 0xa1, 0xa8, 0xa0, 0xa0,
    0x9f, 0xa3, 0x9e, 0x9e, 0xa7, 0x9e, 0xa2, 0xa3, 0xa3, 0xa3,
    0xa3, 0xa0, 0xa0, 0xa5, 0xa5, 0xa0, 0x9d, 0xa7, 0x9f, 0xa6,
    0xa1, 0xa3, 0x9e, 0xa3, 0xa7, 0xa3, 0x9f, 0xa7, 0xa1, 0xa3,
    0xa0, 0xa8, 0x9f, 0xa1, 0x9f, 0xa2, 0x9f, 0xa1, 0xa2, 0x9e,
    0xa4, 0xa1, 0xa6, 0xa2, 0xa2, 0x9e, 0xa4, 0xa1, 0xa5, 0xa6,
    0xa0, 0x9d, 0x9d, 0xa1, 0xa2, 0x9f, 0xa3, 0xa7, 0x9f, 0xa0,
    0x9d, 0xa3, 0xa1, 0xa7, 0xa3, 0xa7, 0xa4, 0xa7, 0xa3, 0xa2,
    0xa2, 0x9d, 0x9f, 0xa4, 0x9e, 0xa6, 0xa2, 0xa7, 0xa4, 0xa1,
    0xa2, 0x9e, 0xa8, 0x9e, 0xa0, 0x9d, 0xa1, 0xa7, 0xa6, 0xa2,
    0xb8, 0x9e, 0x5d, 0x57, 0xb8, 0xca, 0xc0, 0x7f, 0x87, 0x72,
    0x94, 0x75, 0x73, 0x8b, 0x80, 0x7d, 0x88, 0x86, 0x98, 0x9c,
    0xb7, 0xa0, 0xad, 0x9d, 0xa8, 0xac, 0xa3, 0xb0, 0xad, 0xb5,
    0xb2, 0xaa, 0xbd, 0xb7, 0xb9, 0xb2, 0xac, 0xad, 0xb4, 0xa3,
    0xa2, 0x8c, 0x85, 0x89, 0x92, 0x87, 0x95, 0x89, 0x83, 0x8e,
    0xa3, 0x9b, 0xa2, 0x9b, 0x92, 0x8e, 0x92, 0x8f, 0x9a, 0xa5,
    0xaf, 0xaf, 0xb4, 0xb8, 0xad, 0xa6, 0xac, 0xaa, 0xa8, 0xad,
    0x9e, 0x91, 0x8d, 0xb5, 0xc1, 0xa1, 0x9f, 0xc1, 0xbf, 0xb6,
    0xb0, 0xab, 0xa5, 0x99, 0xbc, 0xbe, 0xa5, 0xa7, 0xad, 0xa2,
    0x9c, 0x89, 0x92, 0xa8, 0x98, 0x98, 0xae, 0xbb, 0xad, 0xa9,
    0xab, 0xa8, 0xae, 0xaa, 0x9b, 0xa4, 0xb1, 0xa4, 0xa2, 0x9f,
    0xb3, 0xbd, 0xa8, 0x99, 0xae, 0xa9, 0xa1, 0x90, 0x9d, 0x90,
    0xa3, 0x9d, 0xa7, 0x91, 0xb0, 0xaf, 0xae, 0x9c, 0xab, 0xa4,
    0xa2, 0x95, 0xad, 0xb9, 0xb6, 0x90, 0xa4, 0x8a, 0xa0, 0xb0,
    0x78, 0x76, 0x7c, 0xa0, 0x9e, 0xa4, 0xa6, 0xa4, 0xa8, 0xa7,
    0xa4, 0x9f, 0xa2, 0xae, 0xae, 0x91, 0x93, 0x92, 0xa1, 0x98,
    0xa3, 0x9f, 0xad, 0xa4, 0xa9, 0x9c, 0x97, 0x9d, 0xa0, 0x99,
    0xa1, 0x9b, 0x98, 0x93, 0x99, 0xa8, 0xb0, 0xa1, 0x99, 0xa4,
    0xa8, 0xa2, 0xad, 0xb0, 0xbc, 0xb2, 0xa1, 0xb9, 0x83, 0x52,
    0x69, 0x94, 0xae, 0xb2, 0xb9, 0xca, 0xcd, 0xb0, 0xae, 0xaa,
    0xa9, 0xae, 0xb4, 0xa3, 0xaa, 0xa2, 0xab, 0xbd, 0xb8, 0xce,
    0xba, 0xbe, 0xc4, 0xac, 0xaf, 0x9e, 0x9b, 0x95, 0x9e, 0xa9,
    0xa8, 0xa0, 0xa0, 0x8c, 0x94, 0x8a, 0x93, 0x9a, 0x9d, 0xb2,
    0xaa, 0xb6, 0xa7, 0xb6, 0xc0, 0xaf, 0xaf, 0xaa, 0x94, 0x88,
    0x8c, 0x90, 0x9e, 0xa6, 0xa6, 0xae, 0x9e, 0x9a, 0x9a, 0x97,
    0x93, 0x9e, 0x9d, 0xa9, 0xac, 0x9c, 0xaa, 0x99, 0x9a, 0xb4,
    0x9f, 0xa1, 0x91, 0xa2, 0x9e, 0x92, 0x8b, 0x96, 0x93, 0x99,
    0x9f, 0xaf, 0xae, 0xac, 0xaf, 0xa0, 0xa7, 0xa1, 0xa8, 0xaa,
    0xa0, 0xa2, 0xab, 0xa2, 0xa8, 0x9d, 0xa2, 0xb2, 0x9e, 0x92,
    0x9e, 0xae, 0xa9, 0xa5, 0x98, 0x98, 0xa1, 0xb9, 0xa9, 0xa9,
    0x9f, 0x9a, 0x97, 0xa5, 0xa4, 0x97, 0x9e, 0x9b, 0xa6, 0x97,
    0xa2, 0xad, 0xa3, 0x96, 0xa4, 0xba, 0xb2, 0xbb, 0xba, 0xaf,
    0xa8, 0xaf, 0x9b, 0x95, 0x98, 0x94, 0x9a, 0xa1, 0xa8, 0xa6,
    0xb7, 0xaf, 0xb3, 0xab, 0x9f, 0xae, 0xb7, 0x92, 0xb1, 0xa2,
    0xb7, 0x9c, 0x9b, 0xa7, 0x95, 0x9c, 0x8d, 0xa4, 0xb7, 0xb8,
    0xaf, 0xb4, 0x8d, 0x92, 0x97, 0x95, 0x98, 0xa0, 0xa4, 0xa5,
    0xa7, 0x9a, 0xa0, 0xa5, 0xaa, 0x9f, 0xa0, 0xad, 0xa7, 0xa5,
    0xa3, 0x9d, 0x9c, 0x9f, 0x9d, 0x9d, 0xa0, 0xa0, 0x9f, 0xa5,
    0x9d, 0xa1, 0xa1, 0x9d, 0xa3, 0x9d, 0xa5, 0x9e, 0xa7, 0x9e,
    0xa5, 0xa5, 0xa5, 0xa3, 0xa5, 0xa1, 0xa1, 0xa5, 0x9e, 0xa4,
    0xa4, 0x9e, 0xa1, 0xa2, 0xa0, 0xa6, 0x9c, 0xa2, 0xa0, 0x9d,
    0xa6, 0x9d, 0xa3, 0x9f, 0xa5, 0x9f, 0xa2, 0x9e, 0xa1, 0x9f,
    0x9e, 0xa7, 0xa2, 0xa0, 0xa4, 0x9d, 0xa5, 0x9e, 0xa0, 0xa7,
    0x9f, 0xa1, 0xa3, 0xa2, 0xa0, 0xa7, 0x9e, 0xa7, 0xa4, 0xa6,
    0xa5, 0xa0, 0x9d, 0xa4, 0xa1, 0xa3, 0xa5, 0xa2, 0xa7, 0x9e,
    0xa3, 0xa7, 0xa4, 0xa1, 0x9e, 0xa8, 0x9d, 0xa0, 0xa0, 0xa6,
    0xa7, 0xa2, 0xa3, 0x9e, 0x9f, 0xa2, 0xa6, 0x9e, 0xa0, 0x9e,
    0xa1, 0xa6, 0xa3, 0xa0, 0xa8, 0x9f, 0x9f, 0xa0, 0x9f, 0xa6,
    0xa3, 0xa6, 0xa7, 0xa6, 0x9f, 0xa5, 0xa0, 0xa4, 0x9e, 0xa3,
    0xa4, 0xa6, 0xa4, 0x9f, 0xa1, 0x9d, 0xa3, 0xa0, 0xa5, 0x9f,
    0xa3, 0x9d, 0x9f, 0xa7, 0xa4, 0xa5, 0xa5, 0xa0, 0xa3, 0xa1,
    0xa2, 0xa0, 0x9e, 0x9d, 0xa7, 0x9f, 0xa0, 0xa7, 0xa1, 0xa2,
    0xa6, 0xa3, 0xa2, 0xa8, 0x9e, 0xa8, 0x9d, 0xa6, 0xa3, 0x9e,
    0xa1, 0x9f, 0xa3, 0xa2, 0xa0, 0x9f, 0x9e, 0xa0, 0x9e, 0x9f,
    0xa8, 0x9d, 0x9e, 0xa0, 0x9f, 0xa4, 0xa8, 0xa2, 0x9f, 0xa3,
    0xa2, 0x9f, 0xa6, 0xa7, 0xa1, 0xa0, 0xa1, 0xa2, 0xa7, 0xa1,
    0x7b, 0xbf, 0xe5, 0x7a, 0x8b, 0xaa, 0xa6, 0xc6, 0xdb, 0xb8,
    0xab, 0xa5, 0xbc, 0xb2, 0xa9, 0xa1, 0x9f, 0xa5, 0x94, 0x8a,
    0x8d, 0x88, 0x7f, 0x83, 0x85, 0x88, 0x92, 0x9e, 0x9f, 0xa4,
    0xa7, 0xa8, 0xb5, 0xb6, 0xb8, 0xc6, 0xbf, 0xbc, 0xb7, 0xb6,
    0xad, 0xa9, 0x9c, 0xab, 0xa4, 0x8a, 0x95, 0xaa, 0xa1, 0xa0,
    0x94, 0xa7, 0xb1, 0xac, 0xab, 0xab, 0xa7, 0xa2, 0x9e, 0x9d,
    0x9d, 0xab, 0xa4, 0xa1, 0xaf, 0x9a, 0xa1, 0x9d, 0x92, 0xa7,
    0x9b, 0xab, 0xb3, 0xa5, 0xae, 0x93, 0x97, 0x7e, 0x79, 0x85,
    0x93, 0x8f, 0x9a, 0xa8, 0xb1, 0xb3, 0xbe, 0xb9, 0xb4, 0xab,
    0xba, 0xc4, 0xb0, 0xb3, 0xab, 0xb1, 0x9f, 0xb3, 0xac, 0x9d,
    0x9a, 0xac, 0xac, 0x99, 0xa4, 0xa5, 0xac, 0xb0, 0x9b, 0x8b,
    0xa5, 0xa8, 0xa1, 0x9c, 0xa6, 0xa2, 0x9f, 0x9d, 0xa2, 0x9c,
    0xa6, 0xab, 0xa6, 0x98, 0xae, 0xaf, 0x8a, 0xa6, 0xaa, 0xac,
    0xb6, 0xa3, 0x8b, 0x92, 0xa7, 0xbc, 0xb6, 0x9c, 0xa4, 0x9e,
    0x96, 0x9f, 0xa8, 0x9f, 0xa4, 0x99, 0xa3, 0x94, 0x9c, 0xaf,
    0xa8, 0xa2, 0x9e, 0xa3, 0xa0, 0xaf, 0x9f, 0xac, 0xac, 0xa7,
    0xa7, 0xae, 0xb0, 0xaa, 0xa4, 0x9c, 0xaa, 0x9d, 0x9f, 0x8e,
    0x8a, 0x94, 0x9f, 0xaa, 0x9e, 0x93, 0x9f, 0x99, 0x93, 0x9a,
    0x99, 0x90, 0x92, 0xa0, 0xa2, 0xa0, 0xb2, 0xc5, 0xbf, 0x4d,
    0x28, 0x84, 0x85, 0x8c, 0x8d, 0x8b, 0x82, 0x90, 0x9a, 0xab,
    0xbc, 0xc4, 0xb9, 0xb7, 0xbc, 0xb1, 0xaa, 0xaa, 0xa7, 0xb0,
    0xaf, 0xa9, 0xa8, 0xaf, 0xa2, 0xa9, 0xad, 0xa8, 0xab, 0xae,
    0xba, 0xb2, 0xa7, 0xa2, 0x96, 0x89, 0x87, 0x84, 0x83, 0x84,
    0x96, 0x97, 0x97, 0xa6, 0xa5, 0x95, 0x9b, 0xb0, 0xa9, 0xab,
    0xae, 0xb1, 0xb3, 0x9f, 0xab, 0xa3, 0x8d, 0x8b, 0xaa, 0xad,
    0xa9, 0x8d, 0x8e, 0x97, 0x97, 0x98, 0xa7, 0xbe, 0x94, 0x96,
    0x96, 0xad, 0xaa, 0xa7, 0xa0, 0x9e, 0x99, 0xa2, 0xa3, 0x96,
    0xa1, 0x98, 0xa9, 0xa4, 0xbf, 0xb9, 0xb7, 0xb2, 0xad, 0xb2,
    0xb3, 0xb0, 0xa7, 0x98, 0x99, 0x9e, 0xa7, 0xa6, 0x94, 0x96,
    0x9a, 0x85, 0xa1, 0xa7, 0xab, 0xbd, 0xb2, 0xac, 0x9c, 0x99,
    0x99, 0x9e, 0xae, 0xb8, 0xb2, 0x9d, 0xa7, 0xa3, 0x98, 0x93,
    0xa6, 0xae, 0xae, 0xa8, 0x98, 0xa7, 0xa1, 0x96, 0x91, 0x8f,
    0x9b, 0xa4, 0xa8, 0xa4, 0xae, 0xbb, 0xa3, 0xa8, 0xa3, 0xa5,
    0xaa, 0x9b, 0x94, 0xa2, 0x8b, 0x95, 0x9c, 0xac, 0xae, 0x93,
    0x8b, 0x98, 0x9b, 0xa9, 0xba, 0xb5, 0xa6, 0xa4, 0xb7, 0xa3,
    0xa7, 0x9c, 0xa1, 0xa0, 0x9b, 0xa2, 0x9a, 0x9f, 0xa9, 0xab,
    0xa7, 0xa6, 0xab, 0xa9, 0xab, 0xa6, 0xa4, 0xac, 0xac, 0xbe,
    0xae, 0xb1, 0xb4, 0xa8, 0x9e, 0x9d, 0x8f, 0x76, 0x5d, 0x8c,
    0xb9, 0xbd, 0xbe, 0xcc, 0xc9, 0xb7, 0xbd, 0x9e, 0x9b, 0x93,
    0x9e, 0x91, 0x91, 0xa1, 0xa7, 0xb2, 0xb1, 0xb7, 0xb5, 0xbb,
    0xb7, 0xad, 0xac, 0x9f, 0x99, 0x8f, 0x8f, 0x8c, 0x9c, 0x97,
    0xa1, 0xaf, 0xbb, 0xbc, 0xbd, 0xc2, 0xae, 0xa6, 0xa6, 0xa3,
    0x97, 0x9a, 0x90, 0x7c, 0x85, 0x8f, 0x9f, 0xa5, 0xad, 0xbd,
    0xb9, 0xb0, 0xa9, 0x98, 0x9a, 0x96, 0x9b, 0x9d, 0xbb, 0xb1,
    0xa4, 0xa5, 0xb0, 0xa5, 0xa1, 0xa6, 0xb2, 0xa1, 0x97, 0x91,
    0x9c, 0xac, 0xac, 0x93, 0xa4, 0xac, 0xa8, 0x90, 0x82, 0x85,
    0x8b, 0x87, 0x87, 0x72, 0x94, 0x81, 0x8c, 0x82, 0x83, 0x91,
    0x98, 0x9a, 0x9e, 0x86, 0x8f, 0xb3, 0xbe, 0xc1, 0xaf, 0x9c,
    0xb6, 0xb2, 0xbc, 0xbe, 0xae, 0xbe, 0xc0, 0xb4, 0xad, 0xad,
    0xc7, 0xb5, 0xb1, 0xb3, 0xb0, 0xa9, 0xae, 0xaf, 0x9c, 0x98,
    0x80, 0x7a, 0xa1, 0x9b, 0xa5, 0xa3, 0x9e, 0x98, 0xa0, 0xb4,
    0xbc, 0xbf, 0xa9, 0xbb, 0xb6, 0xb1, 0xaf, 0xa6, 0xa5, 0x96,
    0x91, 0x98, 0x8b, 0x87, 0x9a, 0x87, 0x96, 0x90, 0x92, 0xb1,
    0xa4, 0xb2, 0xb7, 0xb9, 0xaf, 0xa5, 0xc6, 0xbe, 0xa0, 0x97,
    0x92, 0x9e, 0x98, 0xa0, 0x99, 0x9c, 0x8f, 0xb2, 0xb0, 0x90,
    0xa1, 0x9f, 0xa1, 0x9b, 0xa6, 0xac, 0x9b, 0x96, 0xa6, 0x9d,
    0xa7, 0xb8, 0x9d, 0x6c, 0x89, 0x8f, 0x9a, 0xac, 0x98, 0x85,
    0xa9, 0xba, 0xb7, 0x99, 0x8d, 0x94, 0xa9, 0x9f, 0x9a, 0xa3,
    0xa1, 0xa4, 0xaa, 0xab, 0xb4, 0xb4, 0xbe, 0xc5, 0xb0, 0xab,
    0xa9, 0xa3, 0xa3, 0xa4, 0x9a, 0x9c, 0x93, 0x8d, 0x90, 0x9b,
    0xa0, 0x9e, 0xa1, 0xa3, 0xa3, 0xa9, 0x9e, 0xa1, 0x9e, 0xae,
    0x9f, 0x9f, 0xbc, 0xb3, 0xb0, 0xa4, 0xba, 0xb0, 0xab, 0x9c,
    0x90, 0x9b, 0x95, 0xa2, 0xa3, 0xa5, 0x99, 0xab, 0x97, 0x94,
    0x9b, 0xa9, 0x9a, 0xa3, 0xa7, 0xa4, 0xa3, 0xa8, 0xb4, 0xa7,
    0xab, 0x9f, 0x92, 0x99, 0xac, 0x99, 0x81, 0x88, 0x93, 0x96,
    0xa4, 0xc8, 0xb3, 0xaa, 0x9c, 0x8c, 0x74, 0x83, 0x88, 0x85,
    0x7e, 0xaa, 0xad, 0xb6, 0xac, 0xa2, 0xb8, 0xae, 0x98, 0x9b,
    0xa2, 0xb0, 0xaa, 0xa9, 0xa3, 0xb6, 0xa1, 0xa5, 0xb2, 0x9e,
    0xa0, 0xa8, 0xa1, 0x9a, 0xae, 0xad, 0xac, 0xb2, 0x9b, 0xb1,
    0x99, 0xb0, 0xb2, 0xa7, 0x9e, 0xb1, 0xb8, 0xa8, 0xa8, 0xaa,
    0xa6, 0xa9, 0xa8, 0xa4, 0xac, 0xa9, 0xa3, 0x9e, 0xa8, 0xa8,
    0xa9, 0xaf, 0xa0, 0xae, 0x9d, 0xaa, 0xb1, 0xae, 0xa5, 0xa6,
    0x9a, 0x9f, 0xa6, 0xa3, 0x9d, 0xa8, 0xa8, 0x96, 0xa3, 0x96,
    0x9e, 0x9f, 0x8e, 0x9a, 0xa2, 0xa7, 0x9c, 0x9f, 0xad, 0xa9,
    0xa7, 0xae, 0xaa, 0xa5, 0x96, 0x90, 0x9d, 0xb1, 0x6a, 0x87,
    0x99, 0x8a, 0xc6, 0xc8, 0x88, 0x76, 0x8c, 0x80, 0x54, 0x52,
    0x7d, 0x95, 0xa5, 0xa0, 0xb0, 0xb3, 0xaf, 0xb5, 0xa9, 0xad,
    0xb1, 0xac, 0x9f, 0xa4, 0xa0, 0xa6, 0x9b, 0x9f, 0xab, 0xa7,
    0xac, 0xb3, 0xbe, 0xc1, 0xca, 0xca, 0xcc, 0xc1, 0xc0, 0xae,
    0xa5, 0xa7, 0x99, 0xa7, 0xa2, 0xa5, 0xa8, 0xb1, 0xa1, 0x92,
    0xa5, 0xa8, 0xa6, 0xa4, 0x99, 0x94, 0xa0, 0xaa, 0x95, 0xa5,
    0xa8, 0x9f, 0xa9, 0xa3, 0x9e, 0xa9, 0xa1, 0xa3, 0x9f, 0xb5,
    0xaf, 0xa7, 0x9d, 0xa6, 0xa7, 0x9e, 0x9b, 0xa2, 0x9a, 0xa1,
    0x98, 0x8b, 0x96, 0xad, 0xb2, 0x9d, 0x9d, 0xba, 0xb2, 0x9b,
    0xa0, 0xa2, 0x8a, 0x8d, 0x85, 0xa2, 0xab, 0xb1, 0xa9, 0xac,
    0xa3, 0xa9, 0xb6, 0xa8, 0x99, 0x9a, 0xa5, 0xa4, 0xa0, 0x93,
    0xa2, 0xa7, 0x94, 0xbf, 0x9b, 0x94, 0x87, 0xaa, 0xa9, 0xb2,
    0xa8, 0xaa, 0x9e, 0xa3, 0xa7, 0xab, 0x9f, 0xa5, 0xae, 0xc0,
    0x9c, 0x9e, 0x95, 0x97, 0x9b, 0xa1, 0xa1, 0xa9, 0xa4, 0x9a,
    0x9e, 0x96, 0x90, 0x8e, 0x8c, 0x8f, 0x9a, 0xa0, 0x95, 0xa8,
    0xa5, 0xa8, 0xa0, 0x9f, 0xaa, 0xab, 0xaf, 0x9f, 0xaf, 0xb1,
    0xaa, 0xad, 0xaa, 0xab, 0xb2, 0xac, 0xb3, 0xad, 0xa6, 0xa5,
    0xaa, 0xa3, 0x97, 0x98, 0xb5, 0xaa, 0xa2, 0xac, 0x9e, 0x9c,
    0xae, 0xae, 0xad, 0xb2, 0xba, 0xa7, 0x9f, 0x9f, 0xa6, 0x9f,
    0xa3, 0x9e, 0x9e, 0x9c, 0xa4, 0xa5, 0x9c, 0x9e, 0xa2, 0x9c,
    0x9c, 0x9f, 0xa1, 0xa6, 0xa2, 0x9c, 0xa2, 0xa2, 0x9f, 0xa3,
    0x9f, 0x9b, 0x9e, 0x9c, 0xa6, 0x9d, 0xa5, 0xa1, 0xa5, 0xa3,
    0xa4, 0xa3, 0xa1, 0x9e, 0xa0, 0xa0, 0x9e, 0x9c, 0xa4, 0x9f,
    0x9d, 0xa2, 0xa0, 0xa1, 0xa3, 0x9c, 0x9e, 0x9d, 0xa4, 0xa7,
    0xa3, 0x9d, 0xa5, 0xa2, 0xa6, 0x9c, 0xa0, 0x9d, 0xa1, 0xa4,
    0x9d, 0xa0, 0x9f, 0xa4, 0x9f, 0xa6, 0xa1, 0x9e, 0x9e, 0x9e,
    0x9d, 0xa7, 0xa4, 0xa4, 0xa2, 0xa2, 0x9d, 0xa3, 0xa0, 0x9d,
    0xa0, 0xa7, 0x9d, 0xa3, 0x9d, 0xa6, 0xa3, 0x9e, 0x9e, 0x9f,
    0xa5, 0xa2, 0x9e, 0xa6, 0xa3, 0xa3, 0xa5, 0xa3, 0x9f, 0x9d,
    0x9d, 0xa4, 0x9d, 0xa3, 0xa0, 0xa2, 0xa4, 0x9f, 0xa1, 0xa0,
    0xa3, 0xa4, 0xa6, 0x9e, 0xa0, 0xa0, 0xa2, 0xa6, 0xa0, 0xa1,
    0xa4, 0xa6, 0xa0, 0xa6, 0xa4, 0xa6, 0xa3, 0xa6, 0x9d, 0xa0,
    0xa0, 0xa3, 0x9f, 0xa4, 0x9e, 0xa7, 0xa2, 0xa5, 0x9e, 0x9d,
    0xa5, 0xa5, 0xa2, 0xa2, 0x9f, 0xa6, 0xa2, 0x9f, 0x9f, 0xa6,
    0xa1, 0xa2, 0xa5, 0xa4, 0xa4, 0x9d, 0x9d, 0xa6, 0xa6, 0xa3,
    0xa0, 0xa0, 0xa1, 0xa4, 0xa5, 0xa3, 0xa3, 0x9c, 0xa7, 0xa6,
    0xa5, 0xa7, 0x9f, 0xa6, 0x9d, 0x9c, 0x9c, 0xa1, 0x9e, 0xa4,
    0xa5, 0xa3, 0xaf, 0xb4, 0xbe, 0x95, 0x9b, 0x90, 0x85, 0x99,
    0xa3, 0x99, 0x98, 0xa2, 0xa9, 0x9b, 0xa4, 0xa8, 0xac, 0xaa,
    0xa7, 0xaf, 0xa3, 0xba, 0xaa, 0xb4, 0x9e, 0xa0, 0xb3, 0xa0,
    0x9c, 0xa9, 0x8f, 0x93, 0x95, 0x9b, 0x9a, 0x96, 0xa0, 0x9c,
    0xb4, 0xa3, 0xa7, 0x9b, 0x8e, 0xa9, 0x99, 0x8d, 0x9b, 0xaa,
    0xad, 0x9f, 0x97, 0xa0, 0xa0, 0x8c, 0x8d, 0x9d, 0x9c, 0xab,
    0x99, 0xa7, 0xa0, 0xba, 0x9a, 0x96, 0x93, 0x95, 0x95, 0x97,
    0x8b, 0x84, 0x93, 0x95, 0x7f, 0xa0, 0xad, 0xbf, 0xb6, 0xab,
    0xac, 0xaa, 0xa5, 0xa6, 0x9b, 0x87, 0x80, 0x95, 0xa4, 0x96,
    0x8a, 0x71, 0x8c, 0xa1, 0xaf, 0xa4, 0x95, 0x96, 0xa9, 0xab,
    0xae, 0xb8, 0xa9, 0xb7, 0xc7, 0xda, 0xc6, 0xb9, 0xa1, 0xac,
    0xb0, 0xb4, 0xc8, 0xbb, 0xba, 0xa6, 0xaf, 0xc3, 0x9d, 0xab,
    0xa8, 0xa6, 0xa2, 0xa8, 0xb9, 0x94, 0xa5, 0xb4, 0x9f, 0x9b,
    0xa9, 0xaa, 0x92, 0x8f, 0x98, 0xbc, 0xa9, 0xb3, 0xab, 0x9d,
    0xa8, 0x9b, 0xa7, 0xb7, 0xa1, 0x9e, 0xb0, 0x83, 0x89, 0x80,
    0x87, 0x80, 0x6b, 0x6f, 0xa7, 0xa0, 0xc3, 0xd2, 0xac, 0x86,
    0x9a, 0xa8, 0x91, 0x99, 0x8a, 0x97, 0x94, 0xa6, 0xac, 0x99,
    0x91, 0x8f, 0x9c, 0xa3, 0x8b, 0xa4, 0xb2, 0x88, 0x76, 0x6e,
    0x6a, 0x73, 0xa7, 0xaf, 0xaa, 0x8e, 0x7f, 0x98, 0x90, 0x69,
    0xaa, 0xf0, 0xc5, 0x91, 0x98, 0x92, 0xa5, 0xb6, 0xa4, 0xa8,
    0xa4, 0xa3, 0xb6, 0xa3, 0x94, 0xa5, 0xa7, 0x9c, 0x94, 0x99,
    0x95, 0x9b, 0x8b, 0x90, 0x86, 0x84, 0x8a, 0x97, 0x9a, 0xa7,
    0xaa, 0xab, 0xc0, 0xbc, 0xbf, 0xc1, 0xb6, 0xb0, 0xa8, 0xab,
    0xab, 0xaa, 0xa4, 0xa4, 0x96, 0xa9, 0xad, 0xab, 0xb2, 0xac,
    0xa6, 0xa0, 0x9c, 0xa5, 0x93, 0x92, 0x93, 0x9c, 0xaa, 0x9d,
    0xa2, 0x9b, 0x97, 0x9e, 0x9c, 0x9b, 0xad, 0xa2, 0xa1, 0x9c,
    0x9c, 0xab, 0xc1, 0xc5, 0xbb, 0xb6, 0xb1, 0xb5, 0xb0, 0xb3,
    0xb1, 0x9f, 0x9a, 0xa5, 0xb5, 0xa7, 0xae, 0x9b, 0xa7, 0x93,
    0xa4, 0xa8, 0xa9, 0x9c, 0x9d, 0x95, 0xa6, 0x9a, 0x9a, 0x99,
    0xa3, 0xb4, 0x9e, 0xa6, 0xa1, 0xa3, 0xa3, 0x9f, 0x9f, 0xa0,
    0xa6, 0x90, 0xa1, 0xb1, 0xac, 0xa6, 0xa4, 0x9f, 0x9e, 0x9c,
    0x94, 0x9a, 0xb2, 0xb2, 0x90, 0x9f, 0xab, 0xa8, 0x98, 0x9d,
    0x9f, 0x9a, 0xad, 0xad, 0xa8, 0xaa, 0x97, 0xa7, 0xa3, 0xa5,
    0x9d, 0xaf, 0xad, 0xa9, 0xb0, 0xa6, 0x96, 0x98, 0x96, 0x9c,
    0xa6, 0xac, 0xb5, 0xaa, 0xab, 0xb2, 0xc5, 0xad, 0xa2, 0xb6,
    0xa8, 0xa7, 0xa6, 0xc1, 0x9c, 0x9c, 0x77, 0x80, 0x78, 0x7f,
    0x84, 0x77, 0x90, 0x8b, 0x8d, 0x80, 0x99, 0x9c, 0x7e, 0x61,
    0x65, 0x66, 0x7f, 0x7c, 0x83, 0x81, 0x90, 0xaa, 0xaa, 0x8c,
    0xcb, 0xc2, 0xa9, 0xb5, 0xb5, 0xb2, 0xa9, 0xb3, 0xb0, 0xc0,
    0xa6, 0xa1, 0xa9, 0xaa, 0xae, 0x9e, 0x9e, 0xaa, 0xae, 0xa4,
    0xa6, 0xb2, 0xac, 0xaa, 0xae, 0xb0, 0xb2, 0xa8, 0xa8, 0xac,
    0xa5, 0xa0, 0xa5, 0xb0, 0xa9, 0xa7, 0xaf, 0xbb, 0xc0, 0xb9,
    0xbd, 0xab, 0xa6, 0xc1, 0xa7, 0xad, 0xaa, 0xac, 0xa4, 0x9f,
    0xa9, 0x98, 0x94, 0x97, 0x9e, 0x97, 0xa5, 0x9a, 0xa8, 0xa9,
    0x9c, 0x90, 0x9a, 0x95, 0x94, 0xa9, 0x90, 0x9b, 0x94, 0x9b,
    0x90, 0x94, 0x88, 0x78, 0x9b, 0x9d, 0xbd, 0x90, 0x95, 0x5d,
    0x55, 0x83, 0x7d, 0x84, 0x7e, 0x9d, 0x92, 0xc6, 0x3d, 0x5d,
    0x7d, 0x7b, 0x91, 0xab, 0x5a, 0xb0, 0xaf, 0xa8, 0x9a, 0xb0,
    0x9e, 0x5c, 0x52, 0xa0, 0xa8, 0x8b, 0xb5, 0xbb, 0xa5, 0x76,
    0x8a, 0x96, 0x7b, 0x82, 0xa9, 0xa9, 0xb4, 0x91, 0x99, 0xcd,
    0xab, 0x8b, 0x8b, 0xa8, 0xa2, 0xba, 0xca, 0x48, 0x84, 0x84,
    0xa1, 0x87, 0x73, 0x6a, 0x80, 0x89, 0x82, 0x73, 0x6e, 0x64,
    0x78, 0x7b, 0x87, 0x7e, 0x8f, 0x8c, 0x8b, 0x7d, 0x8b, 0x88,
    0xa3, 0xa6, 0xc4, 0xd0, 0xc8, 0xbd, 0xac, 0x9a, 0xa2, 0xaa,
    0xb0, 0xaa, 0xab, 0x94, 0x9a, 0x97, 0x9a, 0x88, 0x94, 0x8a,
    0x8c, 0x9e, 0xaa, 0xb3, 0xba, 0xa9, 0xb5, 0xa9, 0xa4, 0x99,
    0x99, 0xa6, 0xb5, 0xb6, 0xb3, 0x9d, 0xa0, 0xbb, 0xbc, 0x8f,
    0x76, 0x91, 0xca, 0xdc, 0xcf, 0xbe, 0xa5, 0x95, 0x9f, 0xae,
    0x95, 0x98, 0xa2, 0xac, 0x86, 0x86, 0x84, 0x9c, 0x94, 0x66,
    0x90, 0x96, 0x93, 0x9b, 0xc6, 0xb4, 0xb2, 0xac, 0xaa, 0x9f,
    0xa3, 0x9a, 0x8c, 0x97, 0x8c, 0x81, 0x88, 0x75, 0x88, 0x82,
    0x69, 0x63, 0x62, 0x8d, 0x87, 0x95, 0xb3, 0xbf, 0xb4, 0x9f,
    0xa4, 0xbb, 0xb8, 0xab, 0xad, 0xaa, 0xa9, 0x9d, 0xa9, 0xa0,
    0xa1, 0xa2, 0xaf, 0xab, 0xa0, 0x9a, 0xa1, 0xaf, 0x9a, 0xab,
    0xb5, 0x9e, 0xa5, 0x9f, 0x9f, 0xaf, 0xa3, 0x9c, 0xb0, 0xa6,
    0xb3, 0xaa, 0xa4, 0x98, 0xa0, 0xae, 0x94, 0x9b, 0xa0, 0xa9,
    0xa9, 0x99, 0x9d, 0xa2, 0xa1, 0x9d, 0xaf, 0xb8, 0x8a, 0x80,
    0x86, 0x89, 0x86, 0x9e, 0x84, 0xa4, 0x7a, 0x82, 0x99, 0xc4,
    0xa5, 0x94, 0x9e, 0x74, 0x00, 0x24, 0x58, 0x79, 0x78, 0x70,
    0x6f, 0x6f, 0x77, 0x74, 0x7b, 0x7b, 0x79, 0x76, 0x78, 0x71,
    0x78, 0x73, 0x7a, 0x87, 0x93, 0x98, 0x9a, 0x9a, 0x9d, 0x97,
    0x9d, 0x9a, 0x9c, 0x9c, 0x9d, 0x97, 0x95, 0x9c, 0x99, 0x99,
    0x98, 0x98, 0x96, 0xa0, 0x96, 0x98, 0x9a, 0x96, 0x9b, 0x9b,
    0x9e, 0x97, 0x9d, 0x96, 0x9d, 0x9b, 0x9d, 0x9e, 0x9e, 0x96,
    0x98, 0x9d, 0x9e, 0x9d, 0x9b, 0xa3, 0x9b, 0x9a, 0x9f, 0x9e,
    0x90, 0x7b, 0x7e, 0xd9, 0xb1, 0x8f, 0x81, 0x84, 0x9d, 0xa6,
    0xb8, 0xa5, 0xa6, 0x9f, 0xab, 0xaf, 0xb3, 0xbb, 0xb0, 0xaf,
    0xbb, 0xb2, 0xba, 0xab, 0xa8, 0x98, 0x98, 0x88, 0x98, 0x8c,
    0x8d, 0x8e, 0x90, 0x9a, 0xa8, 0x97, 0x9c, 0x9e, 0xb5, 0xb1,
    0xb5, 0xa5, 0xb0, 0xa8, 0xae, 0xa7, 0xad, 0xaa, 0xa1, 0x8c,
    0x94, 0x93, 0xa2, 0xa6, 0xaf, 0xa6, 0xb4, 0xa7, 0xaf, 0xcd,
    0xa6, 0x9b, 0x96, 0x92, 0xa1, 0xb3, 0x9e, 0x9e, 0x9c, 0x90,
    0x9a, 0xb3, 0xa2, 0xaa, 0xad, 0xb5, 0xb6, 0xa0, 0xb8, 0x9b,
    0x9b, 0x9f, 0x9e, 0xb3, 0xb6, 0xba, 0x9b, 0xa7, 0xaf, 0xbc,
    0xb3, 0xaa, 0x92, 0xb4, 0x8d, 0x92, 0x7c, 0x76, 0x99, 0xb0,
    0xa5, 0x7b, 0x74, 0x8c, 0xa2, 0xa6, 0x7f, 0xa6, 0x6b, 0xbb,
    0xa6, 0x8e, 0xc4, 0xa1, 0x95, 0xbb, 0xa4, 0xa0, 0xae, 0x99,
    0x93, 0xac, 0xad, 0x7e, 0x54, 0x74, 0x5d, 0x79, 0xb2, 0x4b,
    0x75, 0x8c, 0x91, 0x96, 0xa4, 0x99, 0xa1, 0xa4, 0xb1, 0x8c,
    0x8e, 0x8c, 0x91, 0x93, 0x8a, 0x8b, 0x90, 0x90, 0x93, 0x94,
    0x99, 0x93, 0x9b, 0x97, 0x9a, 0x9f, 0x9e, 0xa0, 0x9f, 0x97,
    0xa1, 0x9c, 0x9d, 0x9b, 0x99, 0xa0, 0xa1, 0xa3, 0x9e, 0xa5,
    0xa4, 0xa5, 0x9c, 0x9e, 0xa1, 0x9f, 0xa1, 0xa3, 0xa5, 0x9d,
    0x9e, 0xa3, 0x9e, 0xa7, 0xa3, 0xa5, 0xa2, 0xb0, 0x95, 0xb8,
    0xc8, 0xb2, 0x86, 0x84, 0x86, 0x93, 0x92, 0xa0, 0x9c, 0x84,
    0xa0, 0x89, 0x96, 0x9a, 0x9c, 0xac, 0xba, 0xa7, 0xa8, 0xa5,
    0xa8, 0x9e, 0x9e, 0x93, 0x90, 0x88, 0xa8, 0xb5, 0xbd, 0xb7,
    0xb0, 0xa4, 0x9a, 0x7c, 0x8f, 0x9f, 0x9c, 0xa3, 0xb3, 0xa1,
    0xa3, 0xaf, 0xb1, 0xca, 0xc7, 0xbf, 0xa8, 0xb9, 0xb9, 0xa2,
    0x95, 0x6d, 0x7e, 0x72, 0xa4, 0xb1, 0xb3, 0x93, 0x82, 0x73,
    0x88, 0x8c, 0x88, 0xa4, 0xa1, 0xa8, 0xc2, 0xb5, 0xaf, 0xc3,
    0xbc, 0xb6, 0x9b, 0x9f, 0xb4, 0x8c, 0x87, 0x6e, 0x98, 0x82,
    0x8c, 0xb4, 0xac, 0xad, 0xae, 0xa0, 0xa7, 0xa9, 0xab, 0xae,
    0xb2, 0xaa, 0x9e, 0xae, 0x9b, 0x85, 0xa1, 0xa5, 0x87, 0xb0,
    0xa1, 0xaa, 0xa9, 0xbc, 0xa7, 0xaf, 0xa4, 0x92, 0x57, 0x90,
    0x8d, 0x8c, 0x8d, 0x85, 0x8b, 0x8e, 0x91, 0x8f, 0x9c, 0x9b,
    0x99, 0x94, 0x9e, 0x9f, 0xa1, 0x99, 0x99, 0x9b, 0x9d, 0xa1,
    0xa8, 0xaa, 0xad, 0xb5, 0xb2, 0xa3, 0xa8, 0xc0, 0xb1, 0xa9,
    0xa6, 0xaf, 0xab, 0xba, 0xaa, 0xa9, 0xad, 0xad, 0xa4, 0x9d,
    0x93, 0x8e, 0xa1, 0xa1, 0xab, 0xb4, 0xbf, 0xc0, 0xad, 0xaf,
    0xa4, 0xa4, 0xb2, 0xad, 0xac, 0xaa, 0xa4, 0xb5, 0xbe, 0xc1,
    0x9f, 0xa4, 0x99, 0x96, 0x83, 0x88, 0x83, 0x81, 0x9f, 0xab,
    0x83, 0x8c, 0x9c, 0x84, 0xc8, 0xb5, 0x6f, 0x59, 0xd1, 0xde,
    0xaf, 0xab, 0xa8, 0x98, 0x9e, 0x8a, 0x9c, 0xad, 0xa5, 0xac,
    0xb4, 0xa5, 0xaf, 0xac, 0xa5, 0xae, 0x9d, 0xa8, 0x9c, 0x93,
    0x8e, 0x87, 0x85, 0x98, 0x99, 0x9d, 0xae, 0xb4, 0xba, 0xb5,
    0xb2, 0xb0, 0xae, 0xa5, 0xa8, 0xa5, 0x9f, 0x9c, 0x94, 0xa3,
    0x8c, 0x92, 0xa3, 0x9d, 0xaf, 0xa4, 0xab, 0xab, 0xaa, 0xb5,
    0xa3, 0xab, 0xa0, 0x87, 0x81, 0x89, 0x9b, 0xab, 0xab, 0xaa,
    0xb9, 0xb5, 0xac, 0xb7, 0xa5, 0x9b, 0xac, 0x98, 0x89, 0x92,
    0x92, 0x9e, 0x98, 0x9b, 0x91, 0x9d, 0xa2, 0xa4, 0xab, 0xb7,
    0xb1, 0xb2, 0xa5, 0xb3, 0xa9, 0xa6, 0xaa, 0x8d, 0x89, 0x85,
    0x8f, 0x98, 0x8d, 0x9b, 0xa2, 0xa7, 0xa1, 0x9f, 0xaa, 0x9f,
    0xaa, 0x99, 0xaf, 0x9e, 0xa9, 0xa4, 0xae, 0xac, 0xac, 0x8f,
    0xa0, 0xa9, 0xa6, 0xa2, 0xab, 0x9c, 0x9d, 0xab, 0xb4, 0xaa,
    0x98, 0x92, 0xa1, 0xa0, 0x91, 0xb3, 0xa2, 0xb5, 0x8b, 0x9b,
    0xae, 0xb0, 0x9d, 0x89, 0x9a, 0xae, 0xa1, 0xa5, 0xb4, 0xb1,
    0xc7, 0x9b, 0xa0, 0x9b, 0xa2, 0x95, 0x97, 0x8a, 0x8d, 0x91,
    0x9c, 0xb2, 0x8f, 0x9e, 0xa8, 0xb3, 0xb9, 0xb7, 0xb6, 0xa8,
    0xa6, 0xa8, 0xac, 0xa0, 0x99, 0x9a, 0x9e, 0x9a, 0x9b, 0x9c,
    0xa4, 0xa5, 0xa9, 0xa9, 0x9d, 0x9a, 0x9c, 0x95, 0x99, 0xa6,
    0xab, 0xca, 0xa6, 0x78, 0xb9, 0xbf, 0xb9, 0xa8, 0x9f, 0xa4,
    0xbd, 0xb3, 0xad, 0xb1, 0xb8, 0xa7, 0x9f, 0x96, 0xa8, 0x92,
    0xa7, 0xa1, 0xa3, 0x94, 0xb2, 0xaa, 0xbc, 0x9e, 0xb3, 0xa9,
    0xa2, 0xaf, 0x95, 0x7a, 0x72, 0x75, 0x94, 0x85, 0x9b, 0x9d,
    0xa8, 0x94, 0xa9, 0xa1, 0xa0, 0xa1, 0xb5, 0xb3, 0xba, 0xa9,
    0xa3, 0x84, 0x96, 0x9f, 0x9c, 0x9a, 0x9a, 0x80, 0x84, 0x8c,
    0x76, 0x77, 0x82, 0x79, 0x93, 0x94, 0x89, 0x8b, 0x9d, 0x9c,
    0xaa, 0x9c, 0x9d, 0x94, 0x96, 0x9b, 0x9f, 0x89, 0x90, 0x95,
    0xb0, 0x9a, 0x97, 0x92, 0x95, 0x8c, 0x8e, 0x88, 0x98, 0x9d,
    0xa3, 0xa0, 0xac, 0x9a, 0xb1, 0xb9, 0xb7, 0xa5, 0xad, 0xb4,
    0xbe, 0xbe, 0xc6, 0xbb, 0xb9, 0xb6, 0xb2, 0xb3, 0xb8, 0xaf,
    0xb1, 0xa6, 0xac, 0xb3, 0xa9, 0xb1, 0xb0, 0xa9, 0xae, 0xa5,
    0xad, 0x97, 0xb0, 0xa2, 0xa6, 0x9f, 0xbe, 0xae, 0xb9, 0xb6,
    0xaf, 0xad, 0xae, 0xa5, 0x9b, 0x97, 0x96, 0x8d, 0xca, 0xb7,
    0xae, 0xac, 0x9b, 0x96, 0xac, 0xab, 0xb0, 0xa3, 0x99, 0x9b,
    0xb7, 0xb8, 0xb2, 0xa3, 0xa8, 0xab, 0xa6, 0x9c, 0xb1, 0xaa,
    0x90, 0x85, 0x99, 0xae, 0x9e, 0xa5, 0xaa, 0xad, 0xb0, 0xa2,
    0xa5, 0x94, 0xa6, 0xa8, 0xa9, 0xb8, 0xb7, 0xac, 0xad, 0xb5,
    0xad, 0x9d, 0xaa, 0xa7, 0xb5, 0xae, 0x9a, 0xab, 0x8a, 0xcc,
    0xe5, 0xd9, 0x9f, 0x79, 0x91, 0xa1, 0xb9, 0xb4, 0xb0, 0x95,
    0xa5, 0xa8, 0x9a, 0x9c, 0x99, 0xa3, 0xa8, 0x9b, 0xa3, 0x9e,
    0x9e, 0x89, 0xa4, 0x95, 0x9a, 0x99, 0xb1, 0xaa, 0xa1, 0x93,
    0x92, 0x99, 0xa1, 0x9a, 0x95, 0x93, 0x83, 0x94, 0x9f, 0x9d,
    0xa9, 0xac, 0xbc, 0xa0, 0xae, 0xaa, 0xac, 0xac, 0xa9, 0xaa,
    0xb2, 0xaf, 0xa3, 0x8c, 0xab, 0x93, 0x9d, 0x99, 0x9d, 0xa1,
    0x9a, 0x9c, 0x9f, 0xa2, 0xa3, 0xa0, 0xa4, 0xb5, 0xa6, 0x9a,
    0xa9, 0xa9, 0xaf, 0xa6, 0xb0, 0x9d, 0x98, 0x8f, 0xa8, 0xa1,
    0xab, 0xa2, 0x98, 0xa0, 0xa5, 0xc8, 0xb5, 0xa8, 0xa5, 0x97,
    0x8e, 0xb0, 0x91, 0x91, 0x9c, 0xab, 0xa2, 0x99, 0xa3, 0xa5,
    0xa9, 0x9c, 0xa3, 0xc7, 0xab, 0xb3, 0xa9, 0xba, 0xb3, 0x84,
    0x8b, 0x7f, 0x8b, 0xb9, 0x92, 0x95, 0x87, 0x89, 0x82, 0x6d,
    0x76, 0x68, 0x7a, 0x95, 0x95, 0x92, 0xa5, 0x9f, 0x93, 0xb9,
    0xb1, 0xb3, 0xab, 0xa6, 0xc7, 0xb7, 0x94, 0x9d, 0xb9, 0xc5,
    0xba, 0xb0, 0xb4, 0x94, 0xa8, 0xad, 0xb3, 0xb0, 0x9d, 0x93,
    0x90, 0x9d, 0xad, 0xb8, 0x9a, 0x80, 0x9d, 0xae, 0xac, 0xb7,
    0xac, 0xb7, 0xb4, 0xa6, 0x9e, 0x9b, 0x99, 0x9a, 0xac, 0xaa,
    0xa0, 0xa9, 0xa1, 0x8d, 0xb5, 0xaa, 0x9e, 0x93, 0x9f, 0x95,
    0x8b, 0x79, 0x95, 0xa4, 0x94, 0x89, 0x94, 0xa6, 0xd6, 0xce,
    0xcf, 0xdf, 0xbb, 0xa3, 0xa8, 0xa2, 0x8a, 0x81, 0x73, 0x87,
    0x67, 0x8c, 0x87, 0x8e, 0x75, 0x8c, 0x87, 0xa6, 0xa3, 0xad,
    0xab, 0xb4, 0xac, 0xbc, 0xa8, 0xa7, 0xa5, 0xa3, 0x99, 0x9a,
    0xa5, 0xa9, 0xb0, 0xb3, 0xb2, 0xc3, 0xaa, 0xb7, 0xad, 0x9e,
    0x99, 0x9c, 0x92, 0xad, 0x9c, 0x72, 0xa6, 0xa4, 0x98, 0x95,
    0x94, 0x9a, 0x9d, 0xa4, 0xa1, 0xa0, 0x91, 0x97, 0x91, 0x9c,
    0xa9, 0xb3, 0x77, 0x8d, 0x82, 0x9c, 0xa2, 0xb0, 0x87, 0x93,
    0xa7, 0xb7, 0x9a, 0x8d, 0x8f, 0x94, 0x95, 0xab, 0xa2, 0xa6,
    0xa9, 0xa8, 0xaa, 0x9e, 0x8e, 0x97, 0x94, 0x9e, 0x98, 0xa5,
    0x9d, 0xa2, 0xab, 0x9c, 0x9c, 0xa7, 0xa8, 0x99, 0x96, 0xa2,
    0xb1, 0xb3, 0xa2, 0xa3, 0xa0, 0x99, 0x93, 0xa7, 0xa2, 0xad,
    0xa9, 0xad, 0xaa, 0xaf, 0xa0, 0x99, 0x85, 0xa3, 0x9d, 0xaf,
    0x9e, 0xa0, 0x9e, 0x9d, 0x93, 0xa5, 0x97, 0x9a, 0x98, 0xa6,
    0x9c, 0xa6, 0xa4, 0xae, 0xa2, 0xa2, 0x9c, 0xac, 0xb3, 0xa7,
    0xaa, 0xad, 0xbb, 0xbc, 0xa9, 0x9e, 0xb8, 0xb1, 0xbf, 0xac,
    0xa0, 0xac, 0xb1, 0xae, 0xa4, 0xa7, 0xb2, 0xb1, 0xb3, 0xbb,
    0x99, 0xa5, 0xab, 0xa9, 0xa5, 0xa7, 0xa2, 0xb4, 0xb5, 0xb2,
    0xba, 0x9e, 0xa8, 0xab, 0xc1, 0xa4, 0x88, 0x86, 0x97, 0xa6,
    0x99, 0xa0, 0xda, 0x80, 0xac, 0xae, 0xad, 0xba, 0xe0, 0xf0,
    0xc2, 0x97, 0x8a, 0xa0, 0x8f, 0x75, 0x76, 0x73, 0x79, 0x88,
    0x86, 0x88, 0x7e, 0x83, 0x90, 0x8f, 0x91, 0x98, 0x9f, 0x9b,
    0xa6, 0x9d, 0xab, 0x9e, 0xa5, 0x9f, 0xa3, 0xa4, 0xb9, 0xb6,
    0xbb, 0xc0, 0xb2, 0xbd, 0xb1, 0xa9, 0xa8, 0xa5, 0xa9, 0xa4,
    0xa0, 0xaa, 0x9d, 0x9c, 0x99, 0x92, 0x97, 0xa5, 0xb4, 0xaa,
    0xa0, 0xa9, 0xb5, 0xae, 0xaf, 0x9c, 0x9d, 0xa0, 0x94, 0xae,
    0xac, 0xa5, 0xae, 0xa0, 0xa5, 0x99, 0xa9, 0xa2, 0x92, 0x9d,
    0x9c, 0x99, 0x9b, 0x9a, 0x9c, 0xa5, 0xae, 0xa7, 0xab, 0xa3,
    0x98, 0xa1, 0x9d, 0xaa, 0xa4, 0x93, 0xa5, 0xa8, 0xa9, 0xae,
    0xa7, 0xa9, 0xb6, 0xb1, 0xa5, 0xac, 0xa6, 0xad, 0x9a, 0xb2,
    0xae, 0x99, 0xa5, 0xb0, 0x9a, 0x8d, 0xa1, 0xae, 0x99, 0x94,
    0x9d, 0xa4, 0x9d, 0xb8, 0xa9, 0xa4, 0xa5, 0xa3, 0xa2, 0xaf,
    0xb1, 0xad, 0xb3, 0xa0, 0x9d, 0xa3, 0xb0, 0xa3, 0xae, 0xa2,
    0xa8, 0xa3, 0x95, 0xae, 0xaa, 0x96, 0xa8, 0xa1, 0xa1, 0x9b,
    0x92, 0x90, 0xa6, 0x9a, 0xa4, 0xa2, 0x9f, 0xb1, 0x94, 0x8e,
    0xa3, 0xb2, 0xa4, 0x9e, 0xb5, 0xa5, 0x99, 0xab, 0x9f, 0xa7,
    0xa3, 0xaf, 0xa0, 0xa4, 0x96, 0xa7, 0xb5, 0xaa, 0xa4, 0xa1,
    0x9a, 0x90, 0x9b, 0xa9, 0x9b, 0x9c, 0xa5, 0x92, 0x8a, 0xca,
    0xc2, 0x84, 0x80, 0xe0, 0xd8, 0xb6, 0xb0, 0xc3, 0xba, 0xb9,
    0xa1, 0x96, 0x8a, 0xa5, 0xaa, 0xa5, 0xa6, 0xab, 0x9c, 0xa1,
    0x95, 0x93, 0x95, 0x90, 0x8d, 0xa0, 0x9b, 0xa5, 0xa9, 0xb5,
    0xb5, 0xbf, 0xbe, 0xae, 0xc2, 0xbc, 0xbe, 0xa6, 0xa9, 0x9d,
    0x8d, 0x90, 0x91, 0x86, 0x9d, 0x92, 0x93, 0xa5, 0x8c, 0xa2,
    0xa9, 0xa1, 0x96, 0x80, 0x8b, 0x7c, 0x7f, 0x88, 0xab, 0xb2,
    0xb0, 0xac, 0xa4, 0x8e, 0xab, 0xab, 0x9e, 0x8f, 0x8a, 0xac,
    0xa3, 0xaa, 0xa6, 0xa6, 0xa2, 0xaf, 0xae, 0x9e, 0x91, 0x98,
    0xa3, 0x93, 0x9e, 0x97, 0x97, 0x96, 0xa7, 0x9d, 0xa2, 0xa9,
    0xac, 0xa0, 0x9b, 0xaf, 0xa6, 0x95, 0x9e, 0x9d, 0xaf, 0xb2,
    0x96, 0xa3, 0xa3, 0xb7, 0xa6, 0xb3, 0x90, 0xa8, 0xad, 0xa5,
    0x9c, 0xa0, 0x8b, 0xa2, 0xaa, 0xa5, 0x9d, 0xa3, 0xa2, 0xb9,
    0xb8, 0x94, 0x92, 0xb4, 0x9d, 0x88, 0xa2, 0x9c, 0xb2, 0xac,
    0xb4, 0xad, 0x97, 0x99, 0x89, 0x91, 0xa8, 0xa9, 0x9b, 0xb6,
    0xbd, 0xb6, 0xa9, 0xa0, 0xa3, 0xab, 0x9b, 0x9e, 0xa7, 0xae,
    0xb3, 0xbe, 0xb3, 0xbb, 0xaa, 0xa3, 0xa8, 0xa1, 0xa4, 0x8f,
    0x93, 0x9f, 0xa2, 0xa0, 0xa2, 0xae, 0xab, 0xb0, 0xac, 0xa0,
    0xad, 0xab, 0xb5, 0xaf, 0xa3, 0xab, 0xa4, 0xa5, 0xa8, 0xa2,
    0x9a, 0xa2, 0xa0, 0x97, 0x97, 0x90, 0x93, 0xa2, 0x93, 0x71,
    0x7e, 0x9f, 0xa5, 0xa7, 0x94, 0xad, 0xa8, 0xa2, 0x8f, 0x9e,
    0x97, 0xa1, 0x9c, 0x99, 0xa2, 0xa8, 0xb1, 0xb2, 0xb7, 0xbc,
    0xba, 0xba, 0xb6, 0xae, 0xae, 0xa9, 0x93, 0x94, 0x94, 0x89,
    0x7d, 0x77, 0x79, 0x84, 0x91, 0xa2, 0x8f, 0xa0, 0xa8, 0xab,
    0xaa, 0xac, 0xb6, 0xb6, 0xb7, 0xb5, 0xb4, 0xb7, 0xa6, 0xb0,
    0xae, 0xab, 0xac, 0xb6, 0xaf, 0xa4, 0xa7, 0xb0, 0xa3, 0xa2,
    0x93, 0xa7, 0xa2, 0x9d, 0x91, 0x9b, 0x99, 0x8f, 0x95, 0x95,
    0x9a, 0x93, 0x94, 0xa5, 0xa6, 0xb3, 0xa1, 0xa4, 0xa0, 0xae,
    0xa6, 0xb1, 0xa1, 0xaf, 0xb7, 0xc3, 0xb1, 0x92, 0xa3, 0xa9,
    0xb5, 0xb7, 0xa5, 0xb4, 0xb0, 0xb6, 0xbd, 0xc4, 0xb5, 0x97,
    0x8d, 0x9e, 0xb6, 0x93, 0x8d, 0x8c, 0x98, 0x8a, 0xa9, 0xa0,
    0xa1, 0xa3, 0x90, 0x76, 0x58, 0x74, 0x86, 0x85, 0x8a, 0x8c,
    0x9b, 0xa4, 0x98, 0xa1, 0xa4, 0x8f, 0x99, 0x9d, 0x97, 0x94,
    0x94, 0x9c, 0xa8, 0xa2, 0x9a, 0x91, 0xa0, 0xa1, 0xac, 0xa3,
    0x9d, 0x9c, 0xa6, 0xb3, 0xbb, 0xb1, 0xb6, 0xb7, 0xbb, 0xc6,
    0xc4, 0xca, 0xc2, 0xc1, 0xc6, 0xb3, 0xc7, 0xbe, 0xa1, 0xa8,
    0xa1, 0xa6, 0xb5, 0xa7, 0xa9, 0xa7, 0xa9, 0x94, 0xa6, 0xa4,
    0xaa, 0xa6, 0xa3, 0xad, 0xa9, 0x9c, 0xac, 0xb8, 0xb6, 0x97,
    0xa3, 0xaf, 0xaf, 0xd8, 0x95, 0x77, 0xa8, 0xc4, 0x8b, 0x6e,
    0x61, 0x79, 0x94, 0x9c, 0xb6, 0xa7, 0xb0, 0xbe, 0xc6, 0xc7,
    0xc9, 0xb8, 0xb2, 0xa8, 0xaf, 0xa2, 0x9f, 0xa2, 0xa4, 0x9d,
    0xa4, 0x98, 0x94, 0x93, 0x8e, 0x90, 0x95, 0x8e, 0x8c, 0x9b,
    0x9f, 0x9c, 0xaf, 0xa2, 0xab, 0xa8, 0x9e, 0xa4, 0xa0, 0xa2,
    0xa1, 0xa0, 0xaa, 0xa4, 0x9a, 0x90, 0x92, 0xa4, 0x9b, 0x98,
    0x9e, 0x9c, 0x99, 0xa0, 0x9f, 0xaa, 0xa5, 0x99, 0xaa, 0xa7,
    0x9f, 0xa9, 0xb2, 0xa9, 0x98, 0xaa, 0xab, 0xac, 0xaa, 0xa5,
    0xa5, 0xa6, 0xaa, 0xb9, 0xb3, 0xbc, 0xa5, 0xb7, 0xaa, 0xa9,
    0x9f, 0xa1, 0xa2, 0xb9, 0xae, 0xb2, 0xa2, 0x9a, 0x9e, 0xaf,
    0x9d, 0x8d, 0xa6, 0xb4, 0x9b, 0x9c, 0xa9, 0xb7, 0xac, 0xad,
    0x8f, 0xa1, 0xa3, 0xa4, 0xa2, 0x9e, 0x9e, 0x94, 0xa1, 0x9c,
    0xa7, 0x9f, 0x97, 0x9f, 0xa4, 0x8b, 0x98, 0x99, 0x86, 0x9a,
    0xb0, 0xa2, 0x9c, 0x97, 0x96, 0xb4, 0xb7, 0xa6, 0xa1, 0x9c,
    0xa7, 0xb0, 0xb3, 0x95, 0xa6, 0xa3, 0x9e, 0xa9, 0xa3, 0x99,
    0x98, 0x97, 0x99, 0x9f, 0x9e, 0xac, 0x96, 0xa3, 0xa7, 0xa7,
    0xa6, 0xa6, 0xa1, 0xa5, 0x9c, 0xa8, 0xa8, 0xa5, 0xac, 0x9e,
    0xaf, 0xae, 0xba, 0xb0, 0xa2, 0xa0, 0xa5, 0x99, 0x9b, 0xad,
    0xbd, 0xb6, 0x9a, 0xa6, 0xa5, 0xac, 0xa1, 0x9e, 0xa3, 0x97,
    0xa4, 0x9d, 0xa2, 0x9b, 0xa4, 0x9c, 0x9b, 0xa3, 0xa5, 0xa5,
    0x9c, 0x9e, 0xa3, 0x9c, 0x9d, 0xa2, 0xa2, 0xa3, 0xa3, 0xa3,
    0x9f, 0xa4, 0x9f, 0x9f, 0xa5, 0xa5, 0xa6, 0xa4, 0xa4, 0x9c,
    0xa0, 0x9f, 0xa3, 0xa2, 0x9f, 0xa4, 0x9e, 0xa5, 0xa0, 0xa2,
    0x9b, 0x9e, 0xa5, 0xa1, 0x9f, 0xa0, 0xa2, 0x9d, 0xa3, 0xa0,
    0xa2, 0x9f, 0x9d, 0xa3, 0xa5, 0x9d, 0xa2, 0xa1, 0xa1, 0x9e,
    0xa1, 0xa4, 0xa3, 0xa1, 0xa3, 0xa2, 0x9e, 0xa5, 0xa0, 0xa0,
    0x9b, 0xa4, 0xa2, 0x9f, 0x9c, 0x9e, 0xa2, 0xa2, 0xa6, 0xa0,
    0x9d, 0x9b, 0x9f, 0x9e, 0xa0, 0x9e, 0xa6, 0x9c, 0x9c, 0xa3,
    0x9d, 0xa1, 0xa6, 0xa6, 0xa6, 0xa5, 0xa5, 0x9c, 0x9c, 0xa7,
    0xa5, 0xa2, 0xa0, 0xa5, 0xa2, 0x9c, 0xa6, 0xa1, 0xa2, 0xa3,
    0xa0, 0xa5, 0xa0, 0xa1, 0xa1, 0x9f, 0xa1, 0xa3, 0x9d, 0x9c,
    0xa3, 0x9f, 0xa1, 0xa1, 0xa6, 0xa0, 0xa7, 0xa2, 0x9e, 0xa4,
    0xa1, 0xa2, 0xa2, 0xa3, 0xa6, 0x9d, 0xa5, 0xa2, 0xa2, 0x9f,
    0xa4, 0xa2, 0xa1, 0xa2, 0xa6, 0xa6, 0x9f, 0xa3, 0xa4, 0xa0,
    0xa2, 0x9f, 0xa8, 0xa1, 0xa2, 0xa0, 0xa0, 0x9e, 0xa0, 0xa1,
    0xa0, 0xa4, 0x9f, 0xa0, 0x9e, 0xa6, 0xa8, 0xa4, 0x9d, 0xa8,
    0x9f, 0xa3, 0x9f, 0x9d, 0xa2, 0xa4, 0xa4, 0xa7, 0xa2, 0x9d,
    0xa2, 0xa8, 0xa0, 0x9f, 0xa2, 0x9f, 0xa3, 0xb0, 0x9c, 0xb8,
    0xda, 0xd3, 0x9d, 0xac, 0xb1, 0xa3, 0xae, 0xcb, 0xa6, 0x85,
    0x65, 0x72, 0x8a, 0x85, 0x82, 0x8f, 0x91, 0x94, 0xa2, 0xaa,
    0xab, 0xb9, 0xb1, 0xbb, 0xc6, 0xc0, 0xbd, 0xbb, 0xb8, 0xbf,
    0xb9, 0xb5, 0xb6, 0xae, 0xa3, 0xa1, 0xa0, 0x96, 0x9f, 0x98,
    0x9e, 0x98, 0x99, 0x94, 0x8e, 0x9e, 0x8b, 0x9f, 0x95, 0x97,
    0x9d, 0x99, 0xa6, 0x9d, 0x98, 0xab, 0xae, 0xa1, 0x97, 0xa5,
    0x95, 0x8f, 0x96, 0x94, 0x92, 0x81, 0x81, 0x8b, 0x8f, 0x95,
    0x9e, 0x87, 0x8b, 0x9f, 0xa1, 0xaa, 0xb5, 0xc4, 0xbf, 0xad,
    0xab, 0xb0, 0xa9, 0xac, 0xa6, 0xaa, 0xb5, 0xa1, 0xa6, 0x9c,
    0x9f, 0xaf, 0xa6, 0xa9, 0xa4, 0xa6, 0xa2, 0x9f, 0x9c, 0x95,
    0xa3, 0xac, 0xaf, 0xa4, 0xa3, 0xa0, 0xa1, 0x9f, 0xa6, 0xa0,
    0xa0, 0xae, 0xad, 0x9a, 0xa7, 0xb2, 0x9c, 0xae, 0xb1, 0xae,
    0xa9, 0xb6, 0xa9, 0x8a, 0x89, 0x91, 0xa4, 0x8d, 0x99, 0x9b,
    0x9d, 0xa1, 0xb2, 0x9b, 0x9d, 0xab, 0xa6, 0x9c, 0xa1, 0x96,
    0x8a, 0xac, 0xa3, 0xc3, 0xde, 0xc6, 0x89, 0xa4, 0x95, 0xaa,
    0x40, 0x10, 0x64, 0x5f, 0x6c, 0x9a, 0xa4, 0xa4, 0xad, 0xa9,
    0xaa, 0x99, 0x8a, 0x6a, 0x9e, 0x9a, 0xa5, 0xa6, 0xc2, 0xad,
    0xaf, 0xac, 0x92, 0x96, 0xa1, 0xa2, 0xb0, 0xa8, 0xa8, 0xa6,
    0xbd, 0xbd, 0xb3, 0x9f, 0x00, 0x00, 0xa9, 0xd1, 0xb1, 0xbc,
    0x97, 0x65, 0x3b, 0xbf, 0xd7, 0xea, 0x06, 0xbf, 0xdd, 0xa0,
    0x84, 0xbd, 0x0e, 0xc4, 0xb9, 0xbe, 0x0b, 0x58, 0x1c, 0x3f,
    0xd4, 0x8a, 0xa6, 0x3c, 0x3e, 0xcb, 0x6b, 0xbe, 0xb1, 0x11,
    0x14, 0xbf, 0x4b, 0x15, 0x88, 0x3f, 0xcb, 0xe0, 0x7b, 0x3f,
    0x69, 0xf8, 0x38, 0x3e, 0xe0, 0xd7, 0x87, 0xba, 0x71, 0xf7,
    0xaa, 0x3e, 0xb9, 0x4e, 0x04, 0x3e, 0x4b, 0xd5, 0x79, 0xbe,
    0xe9, 0x4d, 0xe8, 0xbe, 0xc7, 0x5a, 0x7f, 0xbe, 0x97, 0x0a,
    0x09, 0x3f, 0xed, 0x3e, 0x02, 0xbf, 0x6c, 0xfb, 0x73, 0xbf,
    0x90, 0x4e, 0x85, 0xbe, 0xb5, 0xad, 0x13, 0xbf, 0x1d, 0xe2,
    0x48, 0xbf, 0xca, 0xe8, 0x93, 0xbc, 0x33, 0x13, 0xec, 0xbe,
    0x87, 0xd7, 0x8a, 0xbe, 0x2f, 0xa4, 0xb0, 0xbc, 0xde, 0x5f,
    0x8b, 0xbf, 0x91, 0x41, 0x20, 0xbe, 0xe9, 0x0e, 0x8d, 0xbd,
    0xde, 0xc5, 0x61, 0x3f, 0xd9, 0x12, 0x1b, 0xbf, 0xc6, 0xcc,
    0x2e, 0xbd, 0xde, 0x04, 0xcd, 0x3e, 0x2c, 0x92, 0x23, 0xbf,
    0x76, 0xa2, 0x91, 0xbe, 0x64, 0x27, 0x18, 0x3f, 0xc8, 0x60,
    0x50, 0x3f, 0xd8, 0x5f, 0x7e, 0xbe, 0xfc, 0x55, 0xc3, 0xbe,
    0x5e, 0xc7, 0x4c, 0xbe, 0x6f, 0xca, 0xb9, 0xbe, 0x90, 0x7c,
    0x2f, 0x3f, 0xba, 0x93, 0xd6, 0xbe, 0xee, 0x94, 0x3f, 0xbf,
    0xf2, 0x14, 0xab, 0xbe, 0xdf, 0xee, 0x34, 0x3f, 0x00, 0xc3,
    0x4b, 0xbd, 0x4e, 0x19, 0xeb, 0xbe, 0x9e, 0x91, 0x8e, 0xc0,
    0x93, 0xbf, 0x8d, 0xc0, 0x88, 0xed, 0x8c, 0xc0, 0x7c, 0x1b,
    0x8c, 0xc0, 0x71, 0x49, 0x8b, 0xc0, 0x66, 0x77, 0x8a, 0xc0,
    0x5b, 0xa5, 0x89, 0xc0, 0x50, 0xd3, 0x88, 0xc0, 0x44, 0x01,
    0x88, 0xc0, 0x39, 0x2f, 0x87, 0xc0, 0x2e, 0x5d, 0x86, 0xc0,
    0x23, 0x8b, 0x85, 0xc0, 0x18, 0xb9, 0x84, 0xc0, 0x0c, 0xe7,
    0x83, 0xc0, 0x01, 0x15, 0x83, 0xc0, 0xf6, 0x42, 0x82, 0xc0,
    0xeb, 0x70, 0x81, 0xc0, 0xe0, 0x9e, 0x80, 0xc0, 0xa9, 0x99,
    0x7f, 0xc0, 0x93, 0xf5, 0x7d, 0xc0, 0x7c, 0x51, 0x7c, 0xc0,
    0x66, 0xad, 0x7a, 0xc0, 0x4f, 0x09, 0x79, 0xc0, 0x39, 0x65,
    0x77, 0xc0, 0x23, 0xc1, 0x75, 0xc0, 0x0c, 0x1d, 0x74, 0xc0,
    0xf6, 0x78, 0x72, 0xc0, 0xe0, 0xd4, 0x70, 0xc0, 0xc9, 0x30,
    0x6f, 0xc0, 0xb3, 0x8c, 0x6d, 0xc0, 0x9c, 0xe8, 0x6b, 0xc0,
    0x86, 0x44, 0x6a, 0xc0, 0x70, 0xa0, 0x68, 0xc0, 0x59, 0xfc,
    0x66, 0xc0, 0x43, 0x58, 0x65, 0xc0, 0x2c, 0xb4, 0x63, 0xc0,
    0x16, 0x10, 0x62, 0xc0, 0x00, 0x6c, 0x60, 0xc0, 0xe9, 0xc7,
    0x5e, 0xc0, 0xd3, 0x23, 0x5d, 0xc0, 0xbc, 0x7f, 0x5b, 0xc0,
    0xa6, 0xdb, 0x59, 0xc0, 0x90, 0x37, 0x58, 0xc0, 0x79, 0x93,
    0x56, 0xc0, 0x63, 0xef, 0x54, 0xc0, 0x4d, 0x4b, 0x53, 0xc0,
    0x36, 0xa7, 0x51, 0xc0, 0x38, 0x46, 0x4f, 0xc0, 0x09, 0x5f,
    0x4e, 0xc0, 0xf3, 0xba, 0x4c, 0xc0, 0xdd, 0x16, 0x4b, 0xc0,
    0xc6, 0x72, 0x49, 0xc0, 0xb0, 0xce, 0x47, 0xc0, 0x99, 0x2a,
    0x46, 0xc0, 0x83, 0x86, 0x44, 0xc0, 0x6d, 0xe2, 0x42, 0xc0,
    0x56, 0x3e, 0x41, 0xc0, 0x40, 0x9a, 0x3f, 0xc0, 0x29, 0xf6,
    0x3d, 0xc0, 0x13, 0x52, 0x3c, 0xc0, 0xfd, 0xad, 0x3a, 0xc0,
    0xe6, 0x09, 0x39, 0xc0, 0xd0, 0x65, 0x37, 0xc0, 0xba, 0xc1,
    0x35, 0xc0, 0xa3, 0x1d, 0x34, 0xc0, 0x8d, 0x79, 0x32, 0xc0,
    0x80, 0x9f, 0x30, 0xc0, 0x60, 0x31, 0x2f, 0xc0, 0x08, 0xd1,
    0x2d, 0xc0, 0xee, 0x70, 0x2b, 0xc0, 0x53, 0xdb, 0x29, 0xc0,
    0x06, 0xa1, 0x28, 0xc0, 0x9f, 0x60, 0x26, 0xc0, 0xda, 0x58,
    0x25, 0xc0, 0xc3, 0xb4, 0x23, 0xc0, 0xad, 0x10, 0x22, 0xc0,
    0x96, 0x6c, 0x20, 0xc0, 0x40, 0x2b, 0x1f, 0xc0, 0x6a, 0x24,
    0x1d, 0xc0, 0x53, 0x80, 0x1b, 0xc0, 0x35, 0xdd, 0x19, 0xc0,
    0xd7, 0xa7, 0x18, 0xc0, 0x5c, 0x01, 0x17, 0xc0, 0x7e, 0x2b,
    0x15, 0xc0, 0xe3, 0x4b, 0x13, 0xc0, 0xcd, 0xa7, 0x11, 0xc0,
    0xb7, 0x03, 0x10, 0xc0, 0xad, 0xdc, 0x0e, 0xc0, 0x8a, 0xbb,
    0x0c, 0xc0, 0x2a, 0x36, 0x0b, 0xc0, 0x5d, 0x73, 0x09, 0xc0,
    0x47, 0xcf, 0x07, 0xc0, 0x30, 0x2b, 0x06, 0xc0, 0x1a, 0x87,
    0x04, 0xc0, 0xe9, 0xa8, 0x03, 0xc0, 0xb7, 0x57, 0x01, 0xc0,
    0xad, 0x35, 0xff, 0xbf, 0x81, 0xed, 0xfb, 0xbf, 0x54, 0xa5,
    0xf8, 0xbf, 0x27, 0x5d, 0xf5, 0xbf, 0xfa, 0x14, 0xf2, 0xbf,
    0xf3, 0xee, 0xee, 0xbf, 0x59, 0xbc, 0xeb, 0xbf, 0xcc, 0x21,
    0xe8, 0xbf, 0x47, 0xf4, 0xe4, 0xbf, 0x59, 0xb8, 0xe1, 0xbf,
    0x60, 0x32, 0xdd, 0xbf, 0x7e, 0x7f, 0xd9, 0xbf, 0x17, 0x25,
    0xd8, 0xbf, 0xad, 0x09, 0xd4, 0xbf, 0xa9, 0xd7, 0xd0, 0xbf,
    0xeb, 0xdb, 0xce, 0xbf, 0xf6, 0xe1, 0xca, 0xbf, 0xc2, 0xe7,
    0xc7, 0xbf, 0xfa, 0x1c, 0xc3, 0xbf, 0x9e, 0xe7, 0xc0, 0xbf,
    0x93, 0x38, 0xbe, 0xbf, 0x66, 0x31, 0xbb, 0xbf, 0xe0, 0xc7,
    0xb6, 0xbf, 0xa8, 0xb9, 0xb3, 0xbf, 0xc0, 0x55, 0xb1, 0xbf,
    0x8e, 0xc5, 0xad, 0xbf, 0x9a, 0xa1, 0xa7, 0xbf, 0xc3, 0x25,
    0xa6, 0xbf, 0x51, 0xf0, 0xa3, 0xbf, 0x05, 0x1f, 0x9f, 0xbf,
    0x8a, 0xe0, 0x9c, 0xbf, 0x27, 0x81, 0x99, 0xbf, 0xc0, 0x29,
    0x95, 0xbf, 0x42, 0x1c, 0x92, 0xbf, 0x82, 0x72, 0x90, 0xbf,
    0x8a, 0x92, 0x8d, 0xbf, 0x62, 0xc6, 0x89, 0xbf, 0x06, 0x15,
    0x86, 0xbf, 0xa4, 0xbf, 0x80, 0xbf, 0x06, 0x3b, 0x7b, 0xbf,
    0x76, 0xa0, 0x76, 0xbf, 0x69, 0x90, 0x71, 0xbf, 0x95, 0x45,
    0x6a, 0xbf, 0x52, 0xd9, 0x63, 0xbf, 0xfd, 0x86, 0x5d, 0xbf,
    0x0d, 0xa0, 0x54, 0xbf, 0x8c, 0xbc, 0x4d, 0xbf, 0x3c, 0x3b,
    0x49, 0xbf, 0x17, 0xd8, 0x44, 0xbf, 0x6c, 0x7b, 0x3c, 0xbf,
    0x79, 0x01, 0x37, 0xbf, 0xeb, 0xad, 0x2f, 0xbf, 0x7b, 0x33,
    0x29, 0xbf, 0x9a, 0x3b, 0x22, 0xbf, 0x90, 0x31, 0x1b, 0xbf,
    0x4c, 0xa4, 0x14, 0xbf, 0xdb, 0x82, 0x0c, 0xbf, 0x75, 0x48,
    0x06, 0xbf, 0x22, 0x65, 0x00, 0xbf, 0xcd, 0x3f, 0xf5, 0xbe,
    0x1c, 0x8e, 0xe9, 0xbe, 0x11, 0x8d, 0xda, 0xbe, 0x3e, 0x3e,
    0xcd, 0xbe, 0x5d, 0x91, 0xc0, 0xbe, 0xd5, 0xc8, 0xb5, 0xbe,
    0xc4, 0xd3, 0xa6, 0xbe, 0xc3, 0xe1, 0x99, 0xbe, 0x19, 0xcd,
    0x8d, 0xbe, 0xa1, 0x9a, 0x7a, 0xbe, 0xeb, 0x1b, 0x62, 0xbe,
    0xd5, 0x48, 0x4a, 0xbe, 0x38, 0x7c, 0x32, 0xbe, 0x25, 0x39,
    0x16, 0xbe, 0xd1, 0xf9, 0xfa, 0xbd, 0xe3, 0x4b, 0xc6, 0xbd,
    0xde, 0xdc, 0x8f, 0xbd, 0x8e, 0xa2, 0x26, 0xbd, 0xe6, 0xb4,
    0x5e, 0xbc, 0x3d, 0x4b, 0x03, 0x3c, 0x47, 0x2c, 0x05, 0x3d,
    0x71, 0x39, 0x6e, 0x3d, 0xd0, 0x95, 0xab, 0x3d, 0xed, 0x14,
    0xe1, 0x3d, 0x0d, 0x9a, 0x0a, 0x3e, 0xa0, 0x85, 0x25, 0x3e,
    0x0a, 0x3f, 0x42, 0x3e, 0x6f, 0x1e, 0x5d, 0x3e, 0xae, 0x32,
    0x74, 0x3e, 0x9b, 0x6c, 0x88, 0x3e, 0x47, 0x55, 0x93, 0x3e,
    0x7c, 0x3a, 0xa0, 0x3e, 0x19, 0x4b, 0xae, 0x3e, 0x88, 0xd4,
    0xbc, 0x3e, 0x8f, 0x2c, 0xc9, 0x3e, 0x3b, 0xbd, 0xd4, 0x3e,
    0x09, 0x7a, 0xe1, 0x3e, 0xff, 0x64, 0xef, 0x3e, 0x4e, 0xf8,
    0xfa, 0x3e, 0x2d, 0x8e, 0x04, 0x3f, 0xb6, 0xa4, 0x0b, 0x3f,
    0x06, 0xb3, 0x11, 0x3f, 0x47, 0x55, 0x18, 0x3f, 0x49, 0x43,
    0x1f, 0x3f, 0x16, 0xe9, 0x25, 0x3f, 0x90, 0x74, 0x2c, 0x3f,
    0x23, 0xf3, 0x31, 0x3f, 0xe3, 0x32, 0x39, 0x3f, 0x08, 0xff,
    0x40, 0x3f, 0xed, 0xa7, 0x47, 0x3f, 0x22, 0xf8, 0x4e, 0x3f,
    0xa4, 0x9d, 0x53, 0x3f, 0x41, 0xf5, 0x59, 0x3f, 0x09, 0xfe,
    0x60, 0x3f, 0x23, 0xa8, 0x67, 0x3f, 0xa1, 0x09, 0x6e, 0x3f,
    0x67, 0x4d, 0x75, 0x3f, 0xb0, 0x87, 0x7a, 0x3f, 0xb0, 0xbd,
    0x7f, 0x3f, 0x02, 0x55, 0x83, 0x3f, 0x9b, 0x8a, 0x87, 0x3f,
    0x77, 0xac, 0x8a, 0x3f, 0xba, 0x01, 0x8d, 0x3f, 0xa4, 0x8d,
    0x90, 0x3f, 0xd6, 0x77, 0x94, 0x3f, 0x25, 0x93, 0x97, 0x3f,
    0xd9, 0xf0, 0x9a, 0x3f, 0x25, 0x3b, 0x9e, 0x3f, 0xe0, 0x94,
    0xa1, 0x3f, 0x44, 0xb1, 0xa4, 0x3f, 0x30, 0x9c, 0xa7, 0x3f,
    0x68, 0x01, 0xac, 0x3f, 0x61, 0x04, 0xaf, 0x3f, 0x36, 0x9b,
    0xb0, 0x3f, 0x96, 0x49, 0xb5, 0x3f, 0x8b, 0xf9, 0xb7, 0x3f,
    0xc2, 0xe8, 0xba, 0x3f, 0x6d, 0xa7, 0xbd, 0x3f, 0x49, 0x6a,
    0xc2, 0x3f, 0x22, 0xf9, 0xc5, 0x3f, 0xa2, 0xfa, 0xc8, 0x3f,
    0x71, 0x76, 0xcd, 0x3f, 0xfc, 0x8a, 0xcf, 0x3f, 0x28, 0x35,
    0xd3, 0x3f, 0x19, 0x02, 0xd6, 0x3f, 0x82, 0x63, 0xd9, 0x3f,
    0xaf, 0xab, 0xdc, 0x3f, 0xdc, 0xf3, 0xdf, 0x3f, 0x09, 0x3c,
    0xe3, 0x3f, 0xbb, 0xd9, 0xe7, 0x3f, 0x62, 0xcc, 0xe9, 0x3f,
    0x8f, 0x14, 0xed, 0x3f, 0xbc, 0x5c, 0xf0, 0x3f, 0xe9, 0xa4,
    0xf3, 0x3f, 0x75, 0x61, 0xf7, 0x3f, 0x42, 0x35, 0xfa, 0x3f,
    0x6f, 0x7d, 0xfd, 0x3f, 0xce, 0x62, 0x00, 0x40, 0xe4, 0x06,
    0x02, 0x40, 0xfb, 0xaa, 0x03, 0x40, 0x11, 0x4f, 0x05, 0x40,
    0xcc, 0x9d, 0xae, 0xb1, 0xa5, 0x5e, 0xa7, 0xe2, 0xb2, 0xbc,
    0xc4, 0xa7, 0xb0, 0xd3, 0xae, 0xc3, 0xc7, 0xab, 0x97, 0xa5,
    0xbb, 0xb1, 0xb9, 0xb4, 0xb3, 0x9d, 0xb1, 0xad, 0xa0, 0x8d,
    0xaa, 0xb9, 0x90, 0xad, 0xa3, 0xb0, 0x9c, 0x94, 0x9d, 0x97,
    0xb3, 0xa9, 0xbf, 0x8d, 0xd0, 0x98, 0xa7, 0xb0, 0xaa, 0x9c,
    0xb7, 0xa5, 0xb8, 0xb4, 0x8d, 0xa5, 0xc1, 0x8c, 0x8f, 0x97,
    0xa9, 0xb9, 0xbe, 0xb9, 0xad, 0x90, 0xab, 0xbf, 0xa2, 0xb9,
    0xb5, 0xc6, 0x8a, 0xb6, 0xa9, 0xef, 0xb4, 0xb6, 0xac, 0xcb,
    0xb2, 0xbc, 0x8d, 0xb3, 0xc2, 0xba, 0xb7, 0xaf, 0x80, 0x95,
    0xd5, 0x8c, 0xa9, 0xbf, 0xb3, 0x98, 0x6e, 0xb5, 0xa8, 0x90,
    0x98, 0xb2, 0x95, 0xa3, 0x8e, 0xb3, 0x85, 0xb4, 0xa6, 0xcb,
    0x7b, 0x93, 0x9f, 0xd9, 0xb9, 0xa2, 0xc1, 0xb6, 0xb4, 0xaf,
    0xb1, 0x9a, 0x84, 0xcc, 0xa6, 0xa6, 0xa7, 0xb4, 0xc0, 0x8f,
    0x81, 0x92, 0xc5, 0xa5, 0xb5, 0xcd, 0xb9, 0x7f, 0x9f, 0xb0,
    0x9c, 0x9e, 0xa6, 0xb8, 0xaf, 0xad, 0xc0, 0xb1, 0xaa, 0xa6,
    0x9e, 0xad, 0xb1, 0xaa, 0x8b, 0x97, 0xb0, 0xab, 0xb2, 0xab,
    0xb4, 0xa4, 0xb4, 0xa1, 0xc1, 0xad, 0xa3, 0x98, 0xcc, 0xbc,
    0xb1, 0x9f, 0x89, 0xba, 0xb1, 0xb1, 0xab, 0xaa, 0xb4, 0xc8,
    0xc9, 0xbd, 0xb0, 0xac, 0xa0, 0xb9, 0xab, 0xdc, 0xa4, 0xb7,
    0xcc, 0xb1, 0xc4, 0x93, 0xc3, 0xaf, 0x76, 0xba, 0xab, 0x97,
    0xb2, 0x93, 0x7f, 0xa6, 0xc8, 0x9c, 0xbb, 0x95, 0xad, 0x46,
    0x89, 0x50, 0xb3, 0xcf, 0xaf, 0xb8, 0xd4, 0xa1, 0xca, 0xb9,
    0xa8, 0xad, 0xa2, 0xa9, 0xb4, 0xac, 0x87, 0xaf, 0x9a, 0xb4,
    0x52, 0xbb, 0x00, 0xb1, 0xa3, 0xa7, 0xa7, 0xb7, 0x95, 0x6d,
    0x85, 0xaa, 0xb7, 0xda, 0xb6, 0xbb, 0xa5, 0xc2, 0xb0, 0xbd,
    0xa0, 0x92, 0xbe, 0xaf, 0x76, 0xa8, 0xb2, 0xb0, 0xa2, 0xb2,
    0xb7, 0xb2, 0xb4, 0xb2, 0xb5, 0xae, 0xbe, 0xaa, 0xc3, 0x79,
    0x84, 0xee, 0xaa, 0x98, 0xad, 0xaf, 0xb0, 0xa8, 0xa7, 0xcb,
    0xd0, 0xb6, 0xbf, 0xa4, 0xd8, 0x94, 0xb6, 0x97, 0xad, 0xcf,
    0x8d, 0xc5, 0xbb, 0x9c, 0x8d, 0xaa, 0xd1, 0xa1, 0xb3, 0xaa,
    0xc2, 0xb2, 0x9d, 0xa5, 0xb6, 0xd3, 0x91, 0xc9, 0xae, 0xbe,
    0xba, 0x82, 0xab, 0xc3, 0xc3, 0x6f, 0xb8, 0xc4, 0x9f, 0xab,
    0xac, 0xc8, 0x8a, 0x8b, 0xa6, 0xc5, 0x99, 0xad, 0x6d, 0x8d,
    0xa6, 0xaa, 0xba, 0xa5, 0xc8, 0x7c, 0xbf, 0x91, 0x7f, 0xea,
    0xb7, 0xbb, 0x8f, 0xb3, 0xbc, 0xbf, 0x96, 0x79, 0xac, 0x9d,
    0x9d, 0x89, 0xa4, 0xae, 0xb4, 0xb0, 0xc7, 0xbf, 0xd2, 0xa7,
    0xb5, 0xb2, 0xb2, 0xa0, 0xba, 0xc4, 0x88, 0xc0, 0xd1, 0xb9,
    0xb8, 0xad, 0x8a, 0xcc, 0xa6, 0xad, 0xaa, 0xb1, 0x9c, 0xc3,
    0xac, 0xbc, 0xb7, 0xaa, 0xa1, 0x9e, 0xb4, 0xba, 0xb3, 0xbb,
    0xb3, 0x90, 0xb6, 0xba, 0x9d, 0xb9, 0xc0, 0xac, 0xab, 0xb4,
    0xb3, 0xd2, 0x8c, 0xaa, 0xca, 0xae, 0xa8, 0xa0, 0x96, 0x9f,
    0x65, 0xc3, 0x9f, 0xd2, 0xae, 0xc6, 0xba, 0x9d, 0x9d, 0xa8,
    0xbc, 0xba, 0xc0, 0xb2, 0xb7, 0xbf, 0xb3, 0xb0, 0xa9, 0xbc,
    0xd3, 0xbf, 0xa7, 0xb4, 0xa8, 0xb9, 0x97, 0x9c, 0x94, 0xcb,
    0x89, 0x80, 0xc5, 0xb1, 0xa2, 0x9d, 0xac, 0xb3, 0xb4, 0xd2,
    0xc1, 0xb2, 0xb3, 0xb6, 0xc3, 0xbc, 0x94, 0xa0, 0xc4, 0xb4,
    0xc5, 0x9f, 0xa7, 0xab, 0xc8, 0x9a, 0xb0, 0xb5, 0xb9, 0xbd,
    0xb0, 0xaa, 0xb2, 0xb8, 0xaa, 0xd2, 0xb4, 0xa8, 0x91, 0xcc,
    0xb0, 0xc5, 0x83, 0xb6, 0x8f, 0x9f, 0xa3, 0xb2, 0xad, 0xb8,
    0xc4, 0xa7, 0x91, 0x96, 0xbb, 0xd3, 0xb1, 0xc7, 0xb8, 0xb0,
    0xc5, 0x99, 0x96, 0xaa, 0xac, 0x59, 0x93, 0x92, 0x93, 0xcc,
    0xbb, 0x8f, 0xbf, 0xbc, 0x9d, 0xb8, 0xb5, 0x92, 0xb2, 0xa6,
    0xba, 0xa1, 0xa3, 0x8f, 0xaa, 0x96, 0x9b, 0xa5, 0xaf, 0xb6,
    0x90, 0xa0, 0xbf, 0xab, 0xa1, 0xdc, 0xa7, 0xcd, 0xc5, 0xa0,
    0x91, 0xc5, 0xd6, 0xa1, 0x97, 0x83, 0xcc, 0x76, 0xae, 0xc2,
    0x85, 0xa0, 0xb8, 0xb5, 0xba, 0xba, 0xa2, 0x87, 0xc1, 0xbe,
    0xac, 0xb4, 0xb5, 0x99, 0xd0, 0xac, 0xb4, 0xb5, 0xbb, 0xc2,
    0xb4, 0xad, 0xc6, 0xb8, 0xb4, 0xa2, 0xb4, 0xb4, 0x82, 0xba,
    0xac, 0xd8, 0x9a, 0xa7, 0xb9, 0x92, 0x8d, 0xd8, 0x95, 0xd5,
    0xc3, 0xcb, 0x80, 0x8c, 0xa7, 0xd2, 0xc0, 0xb9, 0xb0, 0xc2,
    0xd4, 0xcc, 0xba, 0xb0, 0xb2, 0x9b, 0xb0, 0xbc, 0x89, 0xb0,
    0xd3, 0x96, 0xb4, 0xb0, 0xc5, 0x9e, 0xba, 0xc2, 0x97, 0xba,
    0xb3, 0xaf, 0x7b, 0xa5, 0xad, 0xad, 0x94, 0xa9, 0x98, 0xc5,
    0xac, 0xb0, 0xa1, 0xa8, 0xa4, 0xc1, 0xad, 0xbc, 0xb1, 0x89,
    0xaf, 0xbe, 0xb7, 0xa5, 0xc5, 0x93, 0x8a, 0xb0, 0xa8, 0xd1,
    0xd2, 0xdf, 0xc0, 0xb1, 0xbe, 0xa9, 0xa8, 0xac, 0xb3, 0x8e,
    0x93, 0x75, 0xbb, 0xac, 0xab, 0xa4, 0xb0, 0xc5, 0x9b, 0xab,
    0x95, 0xe4, 0xc2, 0xd0, 0xab, 0xbd, 0xb5, 0xa9, 0xc6, 0xb2,
    0xb0, 0xa3, 0xac, 0xb5, 0xb8, 0xc1, 0x53, 0x9b, 0xa1, 0xe6,
    0xc6, 0xb9, 0xc4, 0x51, 0xa0, 0xa9, 0xb2, 0xa2, 0xb5, 0xc8,
    0x95, 0xb2, 0xa5, 0xac, 0xc2, 0x94, 0xc2, 0xc1, 0xbf, 0xa7,
    0x8e, 0xba, 0x94, 0xb7, 0xb1, 0xc4, 0x99, 0xbc, 0x9a, 0xa7,
    0xa3, 0xc0, 0xbd, 0x79, 0xb4, 0xe0, 0xa2, 0xb3, 0xc5, 0x8c,
    0xc0, 0xa9, 0xdd, 0xb1, 0xaf, 0xc1, 0xaa, 0x9f, 0xb8, 0xab,
    0xa0, 0xd8, 0xa8, 0xd3, 0x96, 0xbf, 0xad, 0x6f, 0xb4, 0xa8,
    0x8d, 0xb4, 0xc4, 0xa5, 0x9a, 0x98, 0xc2, 0xbe, 0x94, 0xb5,
    0xaa, 0x82, 0xb9, 0xb3, 0x97, 0xb0, 0x9a, 0xbc, 0x9f, 0x88,
    0x98, 0xc6, 0xcb, 0xa6, 0xaa, 0xb4, 0xb3, 0xa4, 0xb6, 0xbe,
    0xab, 0xa5, 0x94, 0xa8, 0xc2, 0xc5, 0x87, 0x88, 0x9d, 0xd5,
    0x9d, 0xd4, 0xaa, 0xab, 0xab, 0x8b, 0xb8, 0xbb, 0xb6, 0x9c,
    0xae, 0xb4, 0xbd, 0xa3, 0xab, 0xc5, 0x87, 0x91, 0xcc, 0xad,
    0xb5, 0x96, 0x81, 0xc3, 0xb4, 0xae, 0xd1, 0xae, 0xc0, 0xb5,
    0xba, 0xa8, 0xb2, 0xc2, 0xa6, 0xb7, 0xb1, 0xae, 0xa1, 0xb0,
    0xc3, 0xb5, 0xa8, 0xa6, 0x92, 0xa4, 0x71, 0xe8, 0xbb, 0xa0,
    0xad, 0xca, 0x98, 0x86, 0xb9, 0xb6, 0xb7, 0xa8, 0xae, 0xaa,
    0x91, 0xac, 0xb2, 0xa6, 0xc6, 0x85, 0xad, 0xba, 0xc7, 0xd3,
    0x75, 0xb5, 0xaa, 0xb0, 0x9d, 0x93, 0xac, 0xea, 0xba, 0xaa,
    0xc0, 0x93, 0xbd, 0xae, 0xab, 0xb6, 0xa3, 0xad, 0xbb, 0x92,
    0xaf, 0x9f, 0xc0, 0xb5, 0x9f, 0xab, 0xaa, 0xbc, 0xae, 0xb2,
    0xc0, 0xb7, 0x9c, 0x92, 0xc0, 0xc8, 0xc3, 0xb6, 0xb3, 0xcb,
    0x4d, 0x82, 0xa1, 0xa9, 0x95, 0x53, 0xc0, 0xb1, 0x99, 0xb6,
    0xb6, 0xab, 0x87, 0xc9, 0x98, 0x9b, 0x8b, 0x86, 0x4d, 0xa1,
    0xb1, 0x6d, 0x9a, 0xb0, 0xa5, 0xa7, 0xc1, 0xab, 0x97, 0xc2,
    0xa0, 0xb0, 0xaa, 0xb4, 0xbe, 0xb3, 0xbb, 0x42, 0xaa, 0x8c,
    0xc8, 0x84, 0x7f, 0x80, 0x6d, 0xce, 0xc6, 0xc5, 0xa4, 0x92,
    0xab, 0x94, 0xb9, 0xa6, 0xa7, 0xb2, 0xaf, 0xa4, 0x9d, 0xbe,
    0xbd, 0xbd, 0xc7, 0xa1, 0xae, 0xaf, 0xc0, 0xa5, 0xad, 0xc1,
    0xad, 0xd7, 0xb7, 0xde, 0xad, 0xcc, 0xaa, 0xb1, 0xa5, 0xd2,
    0x9a, 0xa8, 0x9d, 0xad, 0xc9, 0x93, 0xbf, 0x7e, 0xaf, 0xe1,
    0xbc, 0x99, 0x9e, 0xf4, 0x90, 0x76, 0xc0, 0xbe, 0xb3, 0x7a,
    0xa2, 0xd6, 0xb0, 0xad, 0xc9, 0xb2, 0x97, 0xad, 0x99, 0xbb,
    0xb1, 0xb5, 0x94, 0x9e, 0xb6, 0xb4, 0x9b, 0xc1, 0x81, 0xa3,
    0xbe, 0x96, 0x9d, 0x8e, 0xb0, 0xd3, 0x9b, 0xa6, 0xc2, 0x7a,
    0x9d, 0x9f, 0xc8, 0xb3, 0xa7, 0xb3, 0x9b, 0x71, 0xba, 0xa7,
    0xc4, 0xa3, 0x93, 0xd6, 0xdf, 0xaf, 0xbc, 0x9e, 0xa9, 0xca,
    0xb7, 0xab, 0xaa, 0xa9, 0x96, 0x9a, 0xb7, 0x9a, 0x48, 0xc2,
    0xc4, 0x9d, 0xc9, 0xad, 0xb9, 0x7b, 0xa5, 0xc6, 0xab, 0xb5,
    0x9b, 0xd7, 0x8f, 0xc3, 0xb6, 0x9c, 0xb3, 0xa8, 0xaf, 0x6e,
    0xa5, 0xa9, 0xbd, 0xa9, 0xc6, 0xa4, 0xb8, 0x94, 0xb1, 0xda,
    0xaf, 0x8b, 0xc7, 0x83, 0xaf, 0x8e, 0x87, 0xcb, 0xb5, 0xaa,
    0xa2, 0xbd, 0xb3, 0xa9, 0xa2, 0xb4, 0xa8, 0x73, 0xc7, 0xb1,
    0xad, 0x9c, 0x87, 0xa1, 0xc4, 0x94, 0x8c, 0xc1, 0xb7, 0xaf,
    0xc2, 0xc3, 0xc6, 0xa0, 0xaa, 0x70, 0x9c, 0xb1, 0xbb, 0xd3,
    0x94, 0xa3, 0xc1, 0xa8, 0xb6, 0xba, 0xbc, 0xba, 0x85, 0xb1,
    0xd3, 0xb5, 0xa4, 0xc6, 0xc7, 0xcb, 0xa7, 0xc3, 0xb2, 0x6f,
    0xc8, 0xae, 0xbe, 0xab, 0xbd, 0xb9, 0xbf, 0x9d, 0xcf, 0x94,
    0xab, 0x93, 0xa9, 0xc2, 0x97, 0x88, 0xae, 0x9b, 0xb2, 0xa9,
    0xa6, 0xe4, 0x91, 0xc0, 0xb4, 0xa1, 0x9c, 0xae, 0xad, 0xa7,
    0xbb, 0xa3, 0x9a, 0xb2, 0xb0, 0x59, 0x78, 0xa4, 0x7a, 0xce,
    0xd8, 0xd6, 0xb6, 0x9b, 0x99, 0xca, 0xc8, 0xbb, 0xaa, 0x9e,
    0xae, 0xc2, 0xc1, 0xa6, 0xa1, 0xa7, 0x93, 0xa3, 0xba, 0x9f,
    0xae, 0xc2, 0xa9, 0xaf, 0xac, 0xa6, 0xb5, 0x95, 0xb4, 0xb6,
    0xbc, 0xa8, 0xa7, 0xab, 0xae, 0xb8, 0xb2, 0xb6, 0xad, 0xa0,
    0xaf, 0xa0, 0xc5, 0xac, 0xcc, 0xd7, 0x9d, 0xd1, 0xaf, 0xaa,
    0xd3, 0x83, 0xc5, 0xa1, 0xa6, 0x8f, 0xc1, 0xa1, 0xa8, 0x92,
    0xae, 0xbb, 0xb5, 0xb1, 0xd2, 0x92, 0xb3, 0xc2, 0xd1, 0xa9,
    0x9a, 0x96, 0x90, 0xaf, 0xcd, 0x9e, 0xbc, 0xdc, 0xbd, 0xa2,
    0xae, 0xb3, 0x82, 0xa3, 0xab, 0xca, 0xb2, 0xb1, 0xb0, 0xa1,
    0xc2, 0xbc, 0xbf, 0xa8, 0x84, 0xb6, 0xc7, 0xab, 0x8a, 0xbc,
    0xc2, 0xa8, 0xa0, 0xc8, 0x9a, 0xaf, 0xae, 0xa1, 0xb2, 0xb1,
    0xc1, 0xb5, 0xa7, 0xab, 0xbf, 0xa7, 0x76, 0xbf, 0xcb, 0xa4,
    0xcd, 0xb2, 0xb4, 0x82, 0xa9, 0xab, 0x9e, 0xc1, 0xbb, 0xb5,
    0xb0, 0xad, 0xbb, 0x95, 0xa4, 0xbb, 0xa7, 0xb6, 0xd0, 0xa9,
    0x7a, 0x97, 0xa8, 0xb2, 0xcc, 0xb9, 0xb0, 0xd3, 0x9d, 0xd4,
    0xc2, 0xbf, 0x95, 0x52, 0xb2, 0xc2, 0xa5, 0xac, 0xa9, 0xbf,
    0xb9, 0xbc, 0xa1, 0xb1, 0xab, 0xc1, 0x6b, 0x85, 0xcb, 0xb8,
    0xb7, 0xb0, 0xb3, 0xac, 0xbd, 0x92, 0x9e, 0xc6, 0xc5, 0xbb,
    0xab, 0xb7, 0xbf, 0xb3, 0xa9, 0x7d, 0x99, 0xb6, 0xc6, 0xaa,
    0x99, 0x93, 0xb8, 0xa9, 0xb8, 0xcc, 0xb6, 0x7f, 0xb4, 0x98,
    0xb0, 0xa2, 0xc1, 0xa0, 0xb5, 0x9d, 0xb3, 0xb8, 0xb4, 0xc4,
    0xba, 0x7f, 0xac, 0xa8, 0x95, 0xb0, 0xa3, 0xb2, 0xb0, 0xb5,
    0xd3, 0xc0, 0x91, 0xae, 0xbb, 0xa7, 0xc8, 0xa3, 0xc0, 0xa1,
    0x9a, 0xae, 0xa3, 0xba, 0xb0, 0x75, 0xa8, 0xa6, 0xc4, 0x9d,
    0xd2, 0xb2, 0xa4, 0xb2, 0xa7, 0xb2, 0xa4, 0x9f, 0xb8, 0xae,
    0x94, 0xc2, 0xd1, 0xae, 0x90, 0x93, 0x99, 0xbf, 0xa4, 0x90,
    0xac, 0x9e, 0xae, 0xaa, 0xa4, 0x6a, 0xbc, 0xa3, 0xc3, 0xc5,
    0xa7, 0x86, 0x95, 0xb0, 0xb0, 0xb8, 0xa8, 0xad, 0x9c, 0xae,
    0xc9, 0xcc, 0xa5, 0xd6, 0xb6, 0xa8, 0xa4, 0xb3, 0xb5, 0x7d,
    0xc5, 0xa9, 0xd7, 0xb6, 0xaf, 0xaa, 0xa5, 0x95, 0xbf, 0xc6,
    0xac, 0xbb, 0xa9, 0xa5, 0xbe, 0xc4, 0xa4, 0xc1, 0xab, 0xd6,
    0xe7, 0xbc, 0xb6, 0xb5, 0xda, 0x7c, 0xbe, 0xc8, 0xd5, 0x80,
    0xae, 0xa5, 0x95, 0xa5, 0xb9, 0xab, 0xa6, 0x9f, 0xc5, 0xbf,
    0xa3, 0xc1, 0xc6, 0xaf, 0xac, 0xcf, 0xbb, 0xa6, 0xc4, 0xa0,
    0x8a, 0xb1, 0xab, 0xaf, 0xbd, 0x9f, 0x9d, 0xb0, 0xb3, 0x6c,
    0xbc, 0xad, 0x9a, 0xa5, 0x9e, 0xbf, 0xae, 0xad, 0xa7, 0xbe,
    0x93, 0xd3, 0xcb, 0xa6, 0xd7, 0xbf, 0xbc, 0xa8, 0xc7, 0xaf,
    0xb1, 0x69, 0xb0, 0x95, 0xbb, 0xae, 0xb4, 0xb0, 0xc2, 0xc6,
    0xb6, 0x84, 0x9e, 0xd1, 0xb7, 0xa9, 0x9e, 0xaa, 0x8b, 0x91,
    0xaa, 0xa9, 0xa9, 0xa7, 0x9e, 0xa1, 0xa3, 0xa4, 0xa7, 0x85,
    0x95, 0x90, 0x99, 0xb2, 0xb8, 0x8b, 0xbb, 0xcf, 0xa5, 0xa8,
    0xc4, 0xac, 0xd2, 0xb7, 0xbb, 0x86, 0xd0, 0xa6, 0xb4, 0xa2,
    0x90, 0xb9, 0xa8, 0xe3, 0xbc, 0xc7, 0xcf, 0xa4, 0x89, 0xaa,
    0xac, 0x85, 0x92, 0xad, 0xad, 0xbb, 0x9f, 0xab, 0xb7, 0xae,
    0xa9, 0xb0, 0xa8, 0xb1, 0xb4, 0xb6, 0xb2, 0xc9, 0x91, 0xff,
    0xc1, 0xa8, 0xb4, 0xc6, 0x95, 0xb4, 0x91, 0x97, 0xae, 0xca,
    0xb5, 0xc2, 0xc9, 0xb3, 0xaf, 0xac, 0xac, 0x85, 0xa3, 0xac,
    0xb1, 0xb2, 0xbe, 0x9e, 0xc1, 0xa9, 0xd8, 0xb8, 0xcb, 0x9e,
    0x97, 0xaf, 0x86, 0xca, 0xab, 0xb3, 0xbd, 0xb4, 0xc2, 0x97,
    0xd9, 0xc1, 0x95, 0xab, 0xaa, 0xa8, 0x98, 0x90, 0x92, 0xb0,
    0xa8, 0x97, 0xb6, 0x99, 0xbb, 0xb9, 0xad, 0xab, 0xb0, 0xc2,
    0xa4, 0xa2, 0xb6, 0xb3, 0xaf, 0xa5, 0xb8, 0xb7, 0xc6, 0x6e,
    0xcb, 0xb0, 0xd8, 0x78, 0xb2, 0xac, 0x9e, 0xc4, 0xa3, 0xb4,
    0x9d, 0xd6, 0xc1, 0xb9, 0xb3, 0xb5, 0xc5, 0xb4, 0xa4, 0xb3,
    0xa6, 0xcc, 0x9a, 0xa7, 0xbb, 0xa0, 0x91, 0xb6, 0xb3, 0xcc,
    0xad, 0xac, 0xa8, 0xdf, 0xb6, 0xba, 0xc7, 0xc4, 0xb4, 0xba,
    0xb7, 0xb0, 0xc1, 0xa4, 0xb3, 0xae, 0xbd, 0x86, 0xbf, 0x7b,
    0xb1, 0xaf, 0xaf, 0x81, 0x96, 0x65, 0xc0, 0x8e, 0x93, 0xbb,
    0xac, 0xcb, 0xd0, 0xcd, 0xb5, 0xbe, 0x98, 0xa6, 0x96, 0xc7,
    0xbc, 0x9f, 0xae, 0xa6, 0xba, 0x9e, 0xaa, 0xa9, 0xa7, 0xca,
    0xb0, 0xbb, 0xd1, 0xb6, 0xc1, 0xa9, 0xbc, 0x9f, 0xb1, 0xda,
    0xb6, 0xbf, 0xbb, 0xaa, 0xc2, 0xc6, 0xc4, 0xab, 0xac, 0x84,
    0x8a, 0xc0, 0xaf, 0x66, 0xce, 0x8b, 0xa4, 0xc0, 0xa6, 0xc4,
    0xc6, 0xbb, 0xa0, 0xc1, 0xa5, 0xdd, 0x9d, 0xa4, 0xc5, 0xa8,
    0xa9, 0xab, 0x5f, 0xb6, 0xaf, 0xa1, 0xab, 0x88, 0xa8, 0xf9,
    0xc6, 0xab, 0xab, 0xa3, 0xab, 0xac, 0x96, 0xad, 0xa8, 0x8a,
    0x9c, 0xbb, 0xb6, 0xa5, 0xa1, 0x94, 0xa9, 0x9c, 0xa0, 0xce,
    0xa8, 0xaf, 0xb5, 0xb7, 0x73, 0x86, 0xcb, 0xa8, 0xbc, 0xba,
    0xc9, 0xb9, 0x79, 0xaa, 0xa6, 0xca, 0x99, 0xb1, 0xb8, 0x7c,
    0xa7, 0xc2, 0x8d, 0xa9, 0xab, 0xab, 0xac, 0xcb, 0xd3, 0xb0,
    0xb4, 0xa5, 0x97, 0xc0, 0x9e, 0xce, 0xd7, 0xaa, 0xab, 0xa4,
    0xb0, 0xa3, 0xa4, 0xaf, 0xae, 0xa3, 0xa5, 0xb1, 0xb0, 0xb3,
    0xae, 0xaa, 0xad, 0xa5, 0xac, 0xae, 0xa9, 0xa8, 0xa3, 0xb2,
    0xa2, 0xaf, 0xb1, 0xa5, 0xaf, 0xaf, 0xa9, 0xaa, 0xb2, 0xa7,
    0xa8, 0xa8, 0xa2, 0xb2, 0xae, 0xa6, 0xa9, 0xaf, 0xb0, 0xb4,
    0xab, 0xad, 0xad, 0xa8, 0xaf, 0xa3, 0x9e, 0xa5, 0xa7, 0xb2,
    0xc0, 0xa0, 0xc3, 0xb4, 0xa2, 0xc9, 0xaa, 0x8a, 0xb9, 0xa0,
    0xb4, 0x9b, 0xaa, 0xc8, 0xb3, 0xaa, 0xb2, 0xac, 0x79, 0xb0,
    0x88, 0xa7, 0xad, 0xcf, 0xb1, 0xb0, 0x95, 0xa9, 0x7a, 0xc4,
    0x9b, 0xb2, 0xb5, 0xb4, 0xae, 0xa9, 0x97, 0xaf, 0x88, 0x8c,
    0xb0, 0x97, 0xa9, 0xba, 0xaa, 0xa8, 0xa2, 0xc4, 0xad, 0xab,
    0xac, 0x5e, 0x85, 0xa7, 0xb7, 0x89, 0xa1, 0xa5, 0x86, 0xbb,
    0xbf, 0xb4, 0xa5, 0xc3, 0xc1, 0x9b, 0xba, 0x95, 0x66, 0xa3,
    0x9f, 0xae, 0xa9, 0xad, 0xab, 0xb8, 0xaf, 0xab, 0xa6, 0xb7,
    0xbb, 0xe0, 0xc4, 0xa9, 0xc0, 0xab, 0xa0, 0x74, 0xae, 0x7e,
    0xa9, 0xa8, 0xc4, 0xd1, 0xb1, 0x97, 0xb7, 0xb3, 0xa3, 0xe2,
    0xac, 0xa8, 0xb7, 0xb3, 0xb9, 0xac, 0xb1, 0x74, 0xab, 0xbb,
    0xaa, 0xa4, 0xbf, 0xc1, 0xb9, 0xaa, 0xb3, 0xa7, 0x9c, 0xa6,
    0xaf, 0x91, 0xa6, 0xc9, 0xa8, 0xd6, 0xd5, 0xab, 0xa6, 0xce,
    0xb9, 0xbf, 0x7b, 0xa7, 0xb1, 0x9e, 0x84, 0x94, 0xaa, 0x9c,
    0x93, 0xab, 0xa6, 0x86, 0xb7, 0xc0, 0xbd, 0xc4, 0xa6, 0xc6,
    0xb9, 0xc7, 0xc4, 0xa8, 0x75, 0xb4, 0x95, 0x9c, 0xc4, 0xb3,
    0x9c, 0xcd, 0xcf, 0x9f, 0xbd, 0xc0, 0xa1, 0x9f, 0xb4, 0xbc,
    0xaf, 0xaa, 0xca, 0xb7, 0xae, 0xb5, 0xac, 0xa6, 0x9a, 0xaa,
    0xb0, 0x96, 0xae, 0xa7, 0xaf, 0xab, 0xa8, 0x93, 0xbb, 0x9f,
    0x96, 0x95, 0xa1, 0x95, 0xc1, 0xa2, 0xc3, 0xbf, 0xac, 0xbe,
    0xc0, 0x9e, 0xa5, 0xb5, 0x9f, 0xa9, 0x8d, 0x9c, 0xca, 0xae,
    0xb1, 0x2f, 0xcc, 0xb1, 0xa6, 0xc3, 0xa9, 0x8f, 0x9c, 0xb4,
    0xc5, 0x98, 0xc2, 0xb1, 0xb3, 0xa4, 0x9a, 0xa9, 0x69, 0xa0,
    0xb8, 0xbb, 0x57, 0xa5, 0xad, 0xa9, 0xb3, 0xde, 0x69, 0x9c,
    0xd9, 0xc3, 0x76, 0xd9, 0xb7, 0xa0, 0xab, 0xaf, 0xb2, 0x78,
    0x99, 0xac, 0xa2, 0xb5, 0xbe, 0xbf, 0x88, 0xd4, 0x8b, 0xba,
    0xb6, 0x9b, 0xb9, 0xbc, 0xb9, 0x45, 0xb0, 0x8d, 0x84, 0xa3,
    0x8e, 0xd2, 0xcf, 0x72, 0xa5, 0xbe, 0xb9, 0xa9, 0x8e, 0xc1,
    0xb2, 0xab, 0xca, 0xb3, 0xcb, 0x67, 0xaf, 0xbe, 0xb2, 0xc4,
    0xc0, 0x91, 0xab, 0xb2, 0xc6, 0xc7, 0x7d, 0xb7, 0xc1, 0x9e,
    0xc2, 0xbb, 0x84, 0xb2, 0xae, 0xc3, 0xbf, 0xa7, 0xa5, 0xb9,
    0xaa, 0xbe, 0xa9, 0xa9, 0xa8, 0xcf, 0xca, 0xa3, 0xa2, 0xc6,
    0x8d, 0x95, 0x76, 0xa7, 0xb7, 0x5f, 0xad, 0xac, 0xa4, 0xbb,
    0xc0, 0xd1, 0x99, 0xaf, 0xb1, 0x9b, 0xb4, 0x96, 0xa1, 0xb1,
    0xa5, 0xa4, 0xc2, 0x7b, 0xbf, 0x91, 0xd9, 0xb4, 0xb0, 0xc7,
    0xb9, 0xa6, 0xc0, 0xb4, 0xb0, 0xc1, 0xd0, 0x9b, 0xbb, 0x86,
    0x65, 0xa7, 0x9a, 0x66, 0xa6, 0xc6, 0xb3, 0x9e, 0xda, 0xa4,
    0xa3, 0xbf, 0xcc, 0xd0, 0xb7, 0xd7, 0x44, 0xaf, 0xb4, 0xb9,
    0x79, 0xa2, 0x8b, 0xb5, 0x96, 0xcf, 0xaf, 0xad, 0xa7, 0xc4,
    0xb3, 0xb8, 0xbf, 0x92, 0xb4, 0xc7, 0xbd, 0x9d, 0xaf, 0x97,
    0xa9, 0x9c, 0xa6, 0xaf, 0xe1, 0xad, 0xa7, 0xa1, 0x8c, 0xae,
    0xa2, 0xa6, 0x99, 0x94, 0xc7, 0xab, 0x8d, 0xda, 0xb0, 0x9e,
    0xcd, 0xb2, 0xdd, 0xae, 0xa5, 0xa4, 0xbd, 0xab, 0xc1, 0xcd,
    0x8c, 0xab, 0xc7, 0xb5, 0xb5, 0xa6, 0xab, 0xb8, 0xa4, 0xbe,
    0xbd, 0xb7, 0xaf, 0xad, 0xb5, 0xa8, 0xc9, 0xa4, 0xaf, 0xc7,
    0xba, 0x98, 0xcd, 0xac, 0xab, 0xb1, 0xb3, 0xb4, 0x8c, 0xb7,
    0xab, 0xae, 0x8d, 0xab, 0xb4, 0xa9, 0xbd, 0xc5, 0xad, 0xb2,
    0xad, 0x87, 0x8a, 0xb5, 0xb7, 0xab, 0xa4, 0xa9, 0xb2, 0xbb,
    0xa0, 0xbc, 0xcd, 0xaa, 0xec, 0xb4, 0xac, 0x5f, 0xba, 0xa0,
    0x97, 0x91, 0xa0, 0xae, 0xb7, 0x7e, 0xaa, 0xc9, 0xa8, 0xa0,
    0xb1, 0xd5, 0x9e, 0xad, 0xbc, 0xd4, 0xb1, 0xb7, 0xb6, 0xaa,
    0x91, 0x79, 0xa7, 0xaf, 0x94, 0xbc, 0xaa, 0x95, 0xac, 0xbd,
    0xb6, 0xc3, 0x94, 0xb5, 0xae, 0xb7, 0x67, 0xb5, 0xa9, 0x53,
    0x72, 0xaf, 0xba, 0xae, 0x90, 0xa6, 0x92, 0x97, 0xa1, 0xa1,
    0x70, 0xc8, 0x9a, 0xbb, 0xd2, 0xb8, 0xd3, 0xa8, 0xaf, 0xad,
    0x4a, 0x2b, 0xa3, 0xbe, 0x0c, 0xb8, 0xaf, 0x3e, 0xa1, 0x86,
    0x88, 0x3e, 0xea, 0x4b, 0xca, 0xbe, 0xe6, 0x5e, 0x41, 0x3f,
    0xb9, 0xc5, 0x74, 0x3f, 0x5a, 0x47, 0x84, 0x3e, 0x25, 0xd1,
    0xb7, 0xbe, 0x35, 0xd4, 0x92, 0xbf, 0xbf, 0xaf, 0xd1, 0x3e,
    0x33, 0x94, 0x00, 0x3f, 0xd7, 0x59, 0x1f, 0x3f, 0xed, 0xbc,
    0x51, 0x3e, 0x54, 0x24, 0x76, 0xbf, 0xba, 0x81, 0xc4, 0xbf,
    0xb8, 0xa7, 0x2a, 0xbf, 0xe1, 0x1c, 0xa3, 0xbe, 0x81, 0xba,
    0xa0, 0xbe, 0xd6, 0x5f, 0x60, 0x3f, 0x8d, 0xc1, 0x4c, 0xbf,
    0x90, 0xdc, 0x7f, 0x3e, 0xfa, 0x92, 0x57, 0x3e, 0x06, 0xf9,
    0xc3, 0x3c, 0x20, 0x57, 0x4c, 0x3d, 0x74, 0xc1, 0xe8, 0xbe,
    0xd4, 0x55, 0x79, 0xbe, 0x0e, 0xf2, 0xd6, 0xbe, 0x8b, 0xe5,
    0x8e, 0x3e, 0xb0, 0xc3, 0xa4, 0x3f, 0x59, 0xf0, 0x31, 0xbf,
    0x78, 0x03, 0x2b, 0xbf, 0xb1, 0x00, 0xb5, 0x3e, 0xdc, 0x18,
    0x01, 0xbe, 0xd9, 0xbf, 0xe3, 0xbe, 0x82, 0x75, 0xb0, 0xbe,
    0x41, 0x01, 0x73, 0xbf, 0x6d, 0xea, 0xc2, 0xbe, 0x10, 0xae,
    0x30, 0xbf, 0xd5, 0x71, 0x16, 0xbe, 0x5d, 0x5e, 0xd1, 0x3d,
    0xfa, 0x33, 0x21, 0x3f, 0x51, 0x68, 0x21, 0xbf, 0x6b, 0x19,
    0x1f, 0x3e, 0xb2, 0x0e, 0x5f, 0x3e, 0x33, 0x65, 0xec, 0xbe,
    0x1d, 0xb0, 0x49, 0xbf, 0x3c, 0xdf, 0x7d, 0xbf, 0xf7, 0x22,
    0xca, 0xbe, 0x0c, 0xc1, 0xab, 0x3d, 0x12, 0x2e, 0x07, 0x3f,
    0x03, 0xc4, 0x87, 0x3e, 0x01, 0xe8, 0x8d, 0x3e, 0xdc, 0xfc,
    0x4f, 0xbf, 0x75, 0x56, 0x17, 0x3e, 0x0f, 0x76, 0xba, 0xbf,
    0x96, 0xed, 0x96, 0xbf, 0xbc, 0xd0, 0xfa, 0x3d, 0x72, 0x26,
    0xa0, 0x3e, 0xcb, 0x44, 0x3f, 0x3e, 0x69, 0xf0, 0xcd, 0x3e,
    0x9a, 0x2b, 0x19, 0xbf, 0x60, 0x5b, 0x47, 0x3e, 0xd0, 0x5c,
    0xe6, 0x3e, 0x74, 0x75, 0xb3, 0x3e, 0x0f, 0x70, 0x82, 0x3f,
    0x5e, 0x10, 0x45, 0x3f, 0x13, 0x52, 0x1d, 0x3f, 0x3c, 0xb6,
    0xa7, 0x3e, 0x48, 0x28, 0x94, 0xbf, 0x4d, 0x31, 0x5d, 0x3e,
    0x8d, 0xeb, 0x1a, 0xbf, 0x38, 0xf9, 0x07, 0x3e, 0x2c, 0xca,
    0x44, 0xbf, 0x1e, 0x4c, 0xb5, 0x3e, 0xe1, 0xd1, 0x38, 0x3e,
    0x59, 0x9d, 0xdb, 0xbe, 0x4f, 0x22, 0xd1, 0x3e, 0x7a, 0xef,
    0x99, 0x3e, 0x50, 0xcd, 0x19, 0xbf, 0xe2, 0xaf, 0xed, 0x3e,
    0xe0, 0x46, 0xfd, 0xbd, 0x5c, 0x36, 0x82, 0xbf, 0x17, 0xba,
    0xa4, 0x3d, 0x5f, 0xc2, 0xf8, 0x3e, 0x0c, 0x3a, 0x51, 0x3d,
    0x41, 0x0f, 0x72, 0x3f, 0xd0, 0x1c, 0xdd, 0xbc, 0x2d, 0xba,
    0x69, 0x3e, 0xc5, 0x85, 0xab, 0xbd, 0x06, 0x1c, 0x32, 0x3f,
    0xc8, 0xb1, 0xf2, 0xbe, 0x8f, 0x81, 0x13, 0x3f, 0x62, 0xa4,
    0x2c, 0xb9, 0x79, 0xd1, 0x98, 0xbf, 0x6d, 0x5c, 0x0a, 0x3f,
    0x37, 0xc1, 0xcb, 0xbd, 0xa8, 0xca, 0xcf, 0x3b, 0x17, 0x33,
    0xa6, 0xbd, 0x9d, 0x09, 0x0c, 0xbe, 0x45, 0x48, 0x8b, 0xbf,
    0xf3, 0x4c, 0x78, 0xbf, 0x66, 0x3c, 0x9a, 0x3e, 0x50, 0x41,
    0x8d, 0x3d, 0x1d, 0xc2, 0xb4, 0x3e, 0x5c, 0x49, 0xca, 0xbe,
    0x05, 0x52, 0x67, 0x3e, 0x47, 0x03, 0x52, 0xbe, 0xf0, 0x2a,
    0x41, 0x3e, 0xfc, 0x06, 0x95, 0x3e, 0xb3, 0x82, 0x81, 0xbc,
    0x20, 0x21, 0x2e, 0xbf, 0x9d, 0xe5, 0x14, 0x3f, 0xac, 0xcf,
    0xc6, 0x3b, 0x8e, 0x5d, 0x39, 0xbe, 0x7e, 0xd2, 0x23, 0xbf,
    0xb1, 0xa1, 0xf2, 0xbd, 0x8b, 0xd8, 0x6b, 0xbe, 0xf4, 0x99,
    0x1f, 0xbf, 0x5b, 0x83, 0x97, 0x3e, 0x90, 0xe5, 0xbe, 0x3e,
    0x24, 0xee, 0x30, 0x3f, 0xa4, 0x7d, 0xfa, 0xbb, 0x0e, 0xf6,
    0x3e, 0x3f, 0x41, 0x62, 0x3a, 0xbf, 0x79, 0xd4, 0x82, 0x3e,
    0x98, 0xdb, 0xfd, 0x3e, 0xc7, 0xbc, 0xe8, 0xbd, 0x8d, 0x4c,
    0x47, 0xbf, 0x10, 0xdd, 0x2e, 0xbe, 0x1e, 0x91, 0x5f, 0xbd,
    0xab, 0x55, 0x49, 0x3f, 0x8e, 0x5a, 0x87, 0x3e, 0x53, 0x7d,
    0x37, 0x3f, 0xd1, 0x20, 0x0e, 0xbf, 0x8a, 0x15, 0x36, 0x3c,
    0x21, 0x69, 0x7b, 0xbf, 0x6b, 0x84, 0xc2, 0xbf, 0x94, 0x5d,
    0x53, 0xbf, 0xae, 0x8c, 0x40, 0x3e, 0x51, 0xd9, 0xa9, 0xbf,
    0x89, 0x0f, 0x07, 0xbe, 0x41, 0xf7, 0x67, 0xbd, 0x61, 0xf9,
    0x0f, 0x3e, 0xef, 0xbd, 0x8f, 0x3f, 0x56, 0x29, 0xce, 0xbf,
    0x88, 0x3d, 0x66, 0xbf, 0x66, 0x8f, 0x9f, 0xbf, 0x61, 0x8d,
    0x96, 0xbf, 0x0e, 0x91, 0x58, 0xbf, 0x5d, 0x30, 0x24, 0x3f,
    0xd2, 0x4d, 0x3e, 0x3d, 0xbe, 0xac, 0x48, 0xbf, 0xf3, 0x7e,
    0x41, 0x3e, 0x53, 0x1b, 0xb2, 0xbe, 0xeb, 0x05, 0x35, 0x3f,
    0x64, 0x53, 0xfa, 0x3e, 0x9b, 0x88, 0x4f, 0xc0, 0x57, 0xc6,
    0xa3, 0x3d, 0xab, 0xc2, 0xce, 0xbd, 0xf2, 0x98, 0x50, 0xbf,
    0x77, 0x9c, 0x3f, 0xbf, 0x42, 0xfe, 0xa3, 0xbf, 0x06, 0x1a,
    0xd7, 0xbe, 0xd6, 0xe2, 0xcf, 0xbf, 0x73, 0xf6, 0x09, 0xbf,
    0x4a, 0xc3, 0x8a, 0xbf, 0xfb, 0x67, 0x61, 0xbf, 0x33, 0xe9,
    0x00, 0x3e, 0x7f, 0xa7, 0x96, 0x3e, 0x19, 0x4d, 0xd9, 0x3e,
    0x26, 0x6d, 0xb1, 0xbe, 0x60, 0xe4, 0x41, 0x3e, 0xb2, 0x2c,
    0x0b, 0xbf, 0x18, 0x45, 0x05, 0xc0, 0x39, 0x63, 0xa2, 0xbe,
    0xb6, 0x9e, 0x01, 0xbd, 0x89, 0x71, 0x09, 0x3d, 0x2b, 0x35,
    0x8e, 0xbe, 0x98, 0x83, 0x8d, 0x3e, 0x60, 0x3f, 0x63, 0x3d,
    0x6b, 0x16, 0x00, 0xbf, 0x7a, 0xb4, 0x0e, 0x3f, 0xd5, 0x48,
    0xbf, 0x3e, 0x6c, 0x81, 0x8b, 0x3e, 0xea, 0x97, 0x87, 0x3e,
    0xa2, 0xa6, 0x0b, 0xbf, 0xad, 0xa6, 0xd2, 0x3e, 0x8b, 0xa1,
    0x17, 0x3f, 0xde, 0xf6, 0x6c, 0xbe, 0xde, 0x48, 0xf5, 0xbf,
    0x30, 0x09, 0x2f, 0x3f, 0x90, 0x3a, 0xb3, 0xbd, 0x05, 0x12,
    0xfe, 0xbe, 0x0b, 0x03, 0x90, 0xbf, 0xda, 0x4a, 0x41, 0x3e,
    0xb1, 0x28, 0x09, 0x3f, 0x3f, 0x5f, 0xa7, 0x3f, 0x39, 0x8e,
    0x4b, 0x3e, 0x69, 0xae, 0x8e, 0x3e, 0x04, 0x42, 0xf6, 0x3e,
    0xd0, 0xec, 0x02, 0x3f, 0x62, 0x18, 0x6b, 0xbf, 0x55, 0xe1,
    0x6e, 0x3e, 0xc7, 0x1c, 0x80, 0xbe, 0x79, 0x7b, 0x45, 0x3f,
    0xd9, 0x7c, 0xf8, 0xbc, 0xbb, 0x4e, 0x60, 0x3d, 0x30, 0xff,
    0xc2, 0x3e, 0x53, 0x59, 0xa9, 0xbf, 0x88, 0xa2, 0xce, 0xbe,
    0x61, 0x56, 0x96, 0x3f, 0xf2, 0x50, 0xba, 0x3e, 0x45, 0x34,
    0xe4, 0x3b, 0x6c, 0x77, 0xa3, 0x3e, 0x95, 0x14, 0xa7, 0xbf,
    0x7c, 0x78, 0x1b, 0xc0, 0x75, 0xf4, 0x92, 0xbe, 0xb1, 0x50,
    0x86, 0x3e, 0xff, 0x99, 0x60, 0xbf, 0x06, 0x8a, 0x98, 0xbf,
    0xee, 0xee, 0x5e, 0xbe, 0xd5, 0x11, 0x22, 0xc0, 0x05, 0x95,
    0x4d, 0xbf, 0x67, 0x9b, 0x8e, 0xbf, 0x8e, 0x18, 0x27, 0xbf,
    0x12, 0x95, 0x95, 0x3d, 0x59, 0x52, 0xf5, 0xbf, 0xf2, 0xcc,
    0x23, 0xbe, 0x5d, 0xc2, 0xfb, 0x3e, 0x1c, 0xd2, 0x07, 0xc0,
    0xc2, 0xcf, 0x6d, 0xbe, 0xdd, 0x86, 0xb7, 0xbe, 0x46, 0x1e,
    0x77, 0x3e, 0x2d, 0x19, 0xf5, 0x3d, 0xb8, 0xf5, 0xd7, 0x3e,
    0x03, 0xbe, 0xb9, 0xbf, 0x68, 0x62, 0x61, 0x3e, 0x00, 0x97,
    0x38, 0x3e, 0xe2, 0xde, 0x2a, 0xbe, 0xcf, 0x54, 0x5f, 0x3f,
    0x17, 0x1d, 0xc1, 0x3c, 0x78, 0x81, 0x5e, 0xbf, 0x4a, 0x16,
    0x0d, 0x3f, 0xab, 0xcf, 0x3d, 0x3f, 0xb6, 0xd9, 0x39, 0xbd,
    0x3a, 0x87, 0x29, 0x3e, 0xcf, 0x4b, 0x2b, 0x3f, 0xb5, 0x3d,
    0x32, 0x3e, 0x20, 0x96, 0x69, 0xbf, 0x5d, 0x1e, 0x39, 0xbe,
    0x6c, 0xe6, 0xcf, 0xbf, 0x6c, 0x63, 0xd6, 0xbe, 0xc0, 0x8a,
    0xe9, 0x3e, 0xbf, 0x5f, 0xba, 0xbe, 0x68, 0xc4, 0xaa, 0xbd,
    0xd5, 0x24, 0x4b, 0x3f, 0x3c, 0x0f, 0xb6, 0x3f, 0x55, 0x8a,
    0x6f, 0xbf, 0x7b, 0xfc, 0xc4, 0xbf, 0xca, 0xa3, 0x8e, 0xbe,
    0x34, 0xfb, 0xe7, 0xbf, 0x4b, 0xed, 0xb0, 0xbf, 0x23, 0x6a,
    0x2a, 0x3f, 0x1e, 0x15, 0x06, 0xbf, 0xd5, 0x02, 0xf9, 0xbf,
    0x8c, 0x7e, 0x3f, 0xbf, 0xe6, 0x09, 0x3d, 0x3f, 0xcc, 0x45,
    0x38, 0x3e, 0x1a, 0xca, 0x7e, 0x3f, 0x80, 0x0b, 0x9f, 0xbf,
    0x82, 0xa7, 0x61, 0x3f, 0x6f, 0x31, 0x90, 0x3f, 0x09, 0x96,
    0x9a, 0x3e, 0xfb, 0x6d, 0x62, 0x3f, 0xf2, 0xda, 0x3c, 0xbe,
    0xa0, 0xf7, 0xc2, 0xbf, 0xc1, 0x98, 0xb3, 0xbd, 0xc5, 0xe6,
    0xff, 0x3e, 0x57, 0x0a, 0x81, 0x3f, 0x1f, 0x55, 0xa8, 0x3e,
    0x67, 0x18, 0x9f, 0xbf, 0xcc, 0xdd, 0x76, 0x3e, 0x4c, 0xbc,
    0x1c, 0xc0, 0x78, 0xec, 0x16, 0xbf, 0x06, 0xb7, 0xda, 0xbf,
    0x93, 0xe2, 0x15, 0xbf, 0x9d, 0xbb, 0xa8, 0xbe, 0x01, 0x97,
    0xa9, 0xbf, 0x50, 0x0e, 0x15, 0x3e, 0xff, 0xd6, 0xc2, 0xbf,
    0x35, 0x08, 0x27, 0xbf, 0x55, 0x80, 0x8a, 0xbf, 0xf0, 0xce,
    0x6a, 0x3e, 0x17, 0x70, 0x4f, 0x3f, 0xe5, 0x32, 0x5f, 0xbf,
    0x16, 0x9d, 0xc0, 0xbe, 0x41, 0xb5, 0x31, 0xc0, 0x17, 0x8c,
    0x0d, 0x3f, 0x05, 0x2d, 0x19, 0x3e, 0x06, 0x0d, 0x42, 0x3f,
    0x8b, 0x8a, 0x4f, 0xbe, 0x47, 0x14, 0xc2, 0x3e, 0x75, 0xd8,
    0x0d, 0xbe, 0x8b, 0xb5, 0xed, 0xbe, 0xfa, 0xba, 0xf4, 0x3e
  };

  return AI_HANDLE_PTR(s_ecg_network_weights);

}

